{
  "version": "1.0",
  "truncation": null,
  "padding": null,
  "added_tokens": [
    {
      "id": 0,
      "content": "[UNK]",
      "single_word": false,
      "lstrip": false,
      "rstrip": false,
      "normalized": false,
      "special": true
    },
    {
      "id": 1,
      "content": "[CLS]",
      "single_word": false,
      "lstrip": false,
      "rstrip": false,
      "normalized": false,
      "special": true
    },
    {
      "id": 2,
      "content": "[SEP]",
      "single_word": false,
      "lstrip": false,
      "rstrip": false,
      "normalized": false,
      "special": true
    },
    {
      "id": 3,
      "content": "[PAD]",
      "single_word": false,
      "lstrip": false,
      "rstrip": false,
      "normalized": false,
      "special": true
    },
    {
      "id": 4,
      "content": "[MASK]",
      "single_word": false,
      "lstrip": false,
      "rstrip": false,
      "normalized": false,
      "special": true
    }
  ],
  "normalizer": null,
  "pre_tokenizer": {
    "type": "Whitespace"
  },
  "post_processor": {
    "type": "TemplateProcessing",
    "single": [
      {
        "SpecialToken": {
          "id": "[CLS]",
          "type_id": 0
        }
      },
      {
        "Sequence": {
          "id": "A",
          "type_id": 0
        }
      },
      {
        "SpecialToken": {
          "id": "[SEP]",
          "type_id": 0
        }
      }
    ],
    "pair": [
      {
        "SpecialToken": {
          "id": "[CLS]",
          "type_id": 0
        }
      },
      {
        "Sequence": {
          "id": "A",
          "type_id": 0
        }
      },
      {
        "SpecialToken": {
          "id": "[SEP]",
          "type_id": 0
        }
      },
      {
        "Sequence": {
          "id": "B",
          "type_id": 1
        }
      },
      {
        "SpecialToken": {
          "id": "[SEP]",
          "type_id": 1
        }
      }
    ],
    "special_tokens": {
      "[CLS]": {
        "id": "[CLS]",
        "ids": [
          1
        ],
        "tokens": [
          "[CLS]"
        ]
      },
      "[SEP]": {
        "id": "[SEP]",
        "ids": [
          2
        ],
        "tokens": [
          "[SEP]"
        ]
      }
    }
  },
  "decoder": null,
  "model": {
    "type": "BPE",
    "dropout": null,
    "unk_token": "[UNK]",
    "continuing_subword_prefix": null,
    "end_of_word_suffix": null,
    "fuse_unk": false,
    "byte_fallback": false,
    "ignore_merges": false,
    "vocab": {
      "[UNK]": 0,
      "[CLS]": 1,
      "[SEP]": 2,
      "[PAD]": 3,
      "[MASK]": 4,
      "!": 5,
      "\"": 6,
      "#": 7,
      "$": 8,
      "%": 9,
      "&": 10,
      "'": 11,
      "(": 12,
      ")": 13,
      "*": 14,
      "+": 15,
      ",": 16,
      "-": 17,
      ".": 18,
      "/": 19,
      "0": 20,
      "1": 21,
      "2": 22,
      "3": 23,
      "4": 24,
      "5": 25,
      "6": 26,
      "7": 27,
      "8": 28,
      "9": 29,
      ":": 30,
      ";": 31,
      "<": 32,
      "=": 33,
      ">": 34,
      "?": 35,
      "A": 36,
      "B": 37,
      "C": 38,
      "D": 39,
      "E": 40,
      "F": 41,
      "G": 42,
      "H": 43,
      "I": 44,
      "J": 45,
      "K": 46,
      "L": 47,
      "M": 48,
      "N": 49,
      "O": 50,
      "P": 51,
      "Q": 52,
      "R": 53,
      "S": 54,
      "T": 55,
      "U": 56,
      "V": 57,
      "W": 58,
      "X": 59,
      "Y": 60,
      "Z": 61,
      "[": 62,
      "\\": 63,
      "]": 64,
      "^": 65,
      "_": 66,
      "`": 67,
      "a": 68,
      "b": 69,
      "c": 70,
      "d": 71,
      "e": 72,
      "f": 73,
      "g": 74,
      "h": 75,
      "i": 76,
      "j": 77,
      "k": 78,
      "l": 79,
      "m": 80,
      "n": 81,
      "o": 82,
      "p": 83,
      "q": 84,
      "r": 85,
      "s": 86,
      "t": 87,
      "u": 88,
      "v": 89,
      "w": 90,
      "x": 91,
      "y": 92,
      "z": 93,
      "{": 94,
      "|": 95,
      "}": 96,
      "à": 97,
      "æ": 98,
      "è": 99,
      "é": 100,
      "ù": 101,
      "—": 102,
      "‘": 103,
      "’": 104,
      "“": 105,
      "”": 106,
      "..": 107,
      "....": 108,
      "he": 109,
      "in": 110,
      "an": 111,
      "the": 112,
      "........": 113,
      "er": 114,
      "on": 115,
      "re": 116,
      "at": 117,
      "en": 118,
      "it": 119,
      "ou": 120,
      "ed": 121,
      "to": 122,
      "is": 123,
      "es": 124,
      "and": 125,
      "or": 126,
      "as": 127,
      "of": 128,
      "ing": 129,
      "th": 130,
      "al": 131,
      "................": 132,
      "ar": 133,
      "ion": 134,
      "ic": 135,
      "se": 136,
      "ro": 137,
      "le": 138,
      "st": 139,
      "ent": 140,
      "me": 141,
      "ac": 142,
      "be": 143,
      "ha": 144,
      "ow": 145,
      "et": 146,
      "ly": 147,
      "ter": 148,
      "ver": 149,
      "--": 150,
      "ll": 151,
      "co": 152,
      "id": 153,
      "ve": 154,
      "ag": 155,
      "wh": 156,
      "ation": 157,
      "for": 158,
      "was": 159,
      "ld": 160,
      "that": 161,
      "ri": 162,
      "ec": 163,
      "ot": 164,
      "gh": 165,
      "ut": 166,
      "ce": 167,
      "ith": 168,
      "ay": 169,
      "ad": 170,
      "lo": 171,
      "you": 172,
      "The": 173,
      "li": 174,
      "his": 175,
      "ch": 176,
      "so": 177,
      "all": 178,
      "with": 179,
      "am": 180,
      "................................": 181,
      "my": 182,
      "un": 183,
      "im": 184,
      "de": 185,
      "ur": 186,
      "ab": 187,
      "if": 188,
      "tion": 189,
      "pro": 190,
      "ess": 191,
      "us": 192,
      "con": 193,
      "are": 194,
      "ir": 195,
      "mo": 196,
      "ke": 197,
      "ment": 198,
      "not": 199,
      "su": 200,
      "ght": 201,
      "ap": 202,
      "had": 203,
      "ex": 204,
      "res": 205,
      "qu": 206,
      "do": 207,
      "she": 208,
      "ther": 209,
      "by": 210,
      "her": 211,
      "sa": 212,
      "man": 213,
      "tr": 214,
      "ould": 215,
      "out": 216,
      "po": 217,
      "our": 218,
      "ne": 219,
      "ich": 220,
      "ain": 221,
      ".”": 222,
      "ill": 223,
      "but": 224,
      "we": 225,
      "ate": 226,
      "net": 227,
      "em": 228,
      "nd": 229,
      "est": 230,
      "which": 231,
      "il": 232,
      "end": 233,
      "sh": 234,
      "\":": 235,
      "up": 236,
      "ard": 237,
      "com": 238,
      "one": 239,
      "ig": 240,
      "lic": 241,
      "-+": 242,
      "have": 243,
      "ind": 244,
      "ack": 245,
      "ul": 246,
      "ity": 247,
      "inter": 248,
      "----": 249,
      "pe": 250,
      "ust": 251,
      "now": 252,
      "wor": 253,
      "fro": 254,
      ",”": 255,
      "col": 256,
      "ers": 257,
      "fe": 258,
      "this": 259,
      "age": 260,
      "od": 261,
      "whe": 262,
      "from": 263,
      "\",": 264,
      "ti": 265,
      "ame": 266,
      "om": 267,
      "ge": 268,
      "no": 269,
      "tocol": 270,
      "very": 271,
      "ho": 272,
      "ted": 273,
      "said": 274,
      "ure": 275,
      "-+-+": 276,
      "ck": 277,
      "own": 278,
      "ere": 279,
      "dat": 280,
      "ry": 281,
      "fo": 282,
      "ple": 283,
      "In": 284,
      "per": 285,
      "sp": 286,
      "way": 287,
      "gr": 288,
      "sel": 289,
      "ass": 290,
      "him": 291,
      "ok": 292,
      "ound": 293,
      "able": 294,
      "thing": 295,
      "20": 296,
      "He": 297,
      "were": 298,
      "ant": 299,
      "some": 300,
      "ist": 301,
      "fi": 302,
      "der": 303,
      "mit": 304,
      "te": 305,
      "go": 306,
      "ough": 307,
      "ated": 308,
      "pp": 309,
      "self": 310,
      "nt": 311,
      "sion": 312,
      "other": 313,
      "ong": 314,
      "ol": 315,
      "pl": 316,
      "red": 317,
      "?”": 318,
      "It": 319,
      "um": 320,
      "ans": 321,
      "ak": 322,
      "des": 323,
      "know": 324,
      "ous": 325,
      "........................................": 326,
      "pt": 327,
      "ice": 328,
      "its": 329,
      "str": 330,
      "ser": 331,
      "when": 332,
      "ight": 333,
      "will": 334,
      "ide": 335,
      "ark": 336,
      "lit": 337,
      "ection": 338,
      "work": 339,
      "ev": 340,
      "who": 341,
      "can": 342,
      "ence": 343,
      "ace": 344,
      "tle": 345,
      "been": 346,
      "ort": 347,
      "el": 348,
      "fer": 349,
      "ber": 350,
      "ive": 351,
      "rec": 352,
      "10": 353,
      "Pro": 354,
      "par": 355,
      "internet": 356,
      "af": 357,
      "there": 358,
      "could": 359,
      "ters": 360,
      "!”": 361,
      "they": 362,
      "ect": 363,
      "into": 364,
      "may": 365,
      "hed": 366,
      "ication": 367,
      "att": 368,
      "14": 369,
      "ps": 370,
      "...": 371,
      "ine": 372,
      "would": 373,
      "ress": 374,
      "ign": 375,
      "au": 376,
      "lice": 377,
      "ast": 378,
      "cri": 379,
      "what": 380,
      "your": 381,
      "This": 382,
      "aw": 383,
      "protocol": 384,
      "wo": 385,
      "Alice": 386,
      "Con": 387,
      "ite": 388,
      "int": 389,
      "form": 390,
      "ram": 391,
      "ty": 392,
      "ach": 393,
      "ang": 394,
      "reat": 395,
      "down": 396,
      "cl": 397,
      "any": 398,
      "ish": 399,
      "row": 400,
      "ary": 401,
      "fore": 402,
      "==": 403,
      "bo": 404,
      "hand": 405,
      "has": 406,
      "av": 407,
      "little": 408,
      "them": 409,
      "ally": 410,
      "act": 411,
      "LS": 412,
      "cont": 413,
      "................................................": 414,
      "TLS": 415,
      "iv": 416,
      "),": 417,
      "ance": 418,
      "like": 419,
      "look": 420,
      "more": 421,
      "op": 422,
      "how": 423,
      "see": 424,
      "uc": 425,
      "ey": 426,
      "ret": 427,
      "add": 428,
      "Tr": 429,
      "-+-+-+-+": 430,
      "time": 431,
      ").": 432,
      "agram": 433,
      "And": 434,
      "ep": 435,
      "comm": 436,
      "TC": 437,
      "bl": 438,
      "enc": 439,
      "ies": 440,
      "ange": 441,
      "ition": 442,
      "mitre": 443,
      "dis": 444,
      "sha": 445,
      "must": 446,
      "pr": 447,
      "ert": 448,
      "gl": 449,
      "cess": 450,
      "ss": 451,
      "Protocol": 452,
      "pass": 453,
      "ouse": 454,
      "ue": 455,
      "network": 456,
      "ER": 457,
      "then": 458,
      "urn": 459,
      "datagram": 460,
      "tor": 461,
      "sec": 462,
      "again": 463,
      "TCP": 464,
      "St": 465,
      "ext": 466,
      "sy": 467,
      "Mr": 468,
      "name": 469,
      "ought": 470,
      "data": 471,
      "call": 472,
      "seem": 473,
      "ake": 474,
      "key": 475,
      "ied": 476,
      "ob": 477,
      "ments": 478,
      "eld": 479,
      "ip": 480,
      "ness": 481,
      "mod": 482,
      "rough": 483,
      "led": 484,
      "over": 485,
      "You": 486,
      "ink": 487,
      "mis": 488,
      "oc": 489,
      "--------": 490,
      "16": 491,
      "lock": 492,
      "about": 493,
      "fr": 494,
      "only": 495,
      "ble": 496,
      "We": 497,
      "than": 498,
      "room": 499,
      "ards": 500,
      "13": 501,
      "Re": 502,
      "ear": 503,
      "door": 504,
      "19": 505,
      "fa": 506,
      "En": 507,
      "before": 508,
      "ations": 509,
      "through": 510,
      "spec": 511,
      "46": 512,
      "ption": 513,
      "vi": 514,
      "should": 515,
      "br": 516,
      "cor": 517,
      "eng": 518,
      "upon": 519,
      "app": 520,
      "great": 521,
      "pres": 522,
      "their": 523,
      "conn": 524,
      "long": 525,
      "cu": 526,
      "............................................": 527,
      "serv": 528,
      "ever": 529,
      "iz": 530,
      "ise": 531,
      "ask": 532,
      "used": 533,
      "ting": 534,
      "read": 535,
      "mark": 536,
      "sc": 537,
      "beg": 538,
      "Wh": 539,
      "fin": 540,
      "But": 541,
      "under": 542,
      "mes": 543,
      "ial": 544,
      "ident": 545,
      "ade": 546,
      "ning": 547,
      "light": 548,
      "aph": 549,
      "cal": 550,
      "fl": 551,
      "fri": 552,
      "lient": 553,
      "descri": 554,
      "Au": 555,
      "RF": 556,
      "requ": 557,
      "There": 558,
      "two": 559,
      "off": 560,
      "set": 561,
      "got": 562,
      "Cont": 563,
      "ile": 564,
      "ef": 565,
      "face": 566,
      "well": 567,
      "Inter": 568,
      "graph": 569,
      "came": 570,
      "min": 571,
      "ud": 572,
      "ors": 573,
      "Hol": 574,
      "stre": 575,
      "Holmes": 576,
      "such": 577,
      "pre": 578,
      "pat": 579,
      "........................": 580,
      "indow": 581,
      "ra": 582,
      "tters": 583,
      "prov": 584,
      "ful": 585,
      "tt": 586,
      "side": 587,
      "17": 588,
      "ves": 589,
      "ase": 590,
      "12": 591,
      "18": 592,
      "Ex": 593,
      "cour": 594,
      "ref": 595,
      "bet": 596,
      "seemed": 597,
      "address": 598,
      "mat": 599,
      "attack": 600,
      "here": 601,
      "after": 602,
      "head": 603,
      "HA": 604,
      "sm": 605,
      "ener": 606,
      "get": 607,
      "hi": 608,
      "ild": 609,
      "RFC": 610,
      "back": 611,
      "thought": 612,
      "think": 613,
      "commun": 614,
      "use": 615,
      "ified": 616,
      "ten": 617,
      "day": 618,
      "ific": 619,
      "Page": 620,
      "found": 621,
      "made": 622,
      "new": 623,
      "friend": 624,
      "40": 625,
      "connection": 626,
      "med": 627,
      "sto": 628,
      "most": 629,
      "many": 630,
      "Utters": 631,
      "did": 632,
      "went": 633,
      "version": 634,
      "part": 635,
      "Utterson": 636,
      "anc": 637,
      "come": 638,
      "field": 639,
      "pu": 640,
      "rol": 641,
      "stem": 642,
      "lication": 643,
      "good": 644,
      "Ad": 645,
      "cert": 646,
      "ures": 647,
      "llow": 648,
      "never": 649,
      "TER": 650,
      "ave": 651,
      "ree": 652,
      "....................................": 653,
      "word": 654,
      "these": 655,
      "put": 656,
      "say": 657,
      "_mitre": 658,
      "pri": 659,
      "x_mitre": 660,
      "ord": 661,
      "ried": 662,
      "ource": 663,
      "x_mitre_": 664,
      "15": 665,
      "uch": 666,
      "sign": 667,
      "ond": 668,
      "ount": 669,
      "mor": 670,
      "ire": 671,
      "less": 672,
      "Se": 673,
      "air": 674,
      "trans": 675,
      "===": 676,
      "Res": 677,
      "thent": 678,
      "alk": 679,
      "right": 680,
      "process": 681,
      "exp": 682,
      "point": 683,
      "vent": 684,
      "App": 685,
      "che": 686,
      "car": 687,
      "old": 688,
      "tograph": 689,
      "ick": 690,
      "open": 691,
      "each": 692,
      "house": 693,
      "nal": 694,
      "que": 695,
      "where": 696,
      "bit": 697,
      "fir": 698,
      "even": 699,
      "shall": 700,
      "Internet": 701,
      "Com": 702,
      "TT": 703,
      "dri": 704,
      "every": 705,
      "night": 706,
      "ious": 707,
      "let": 708,
      "ets": 709,
      "ages": 710,
      "formation": 711,
      "might": 712,
      "val": 713,
      "sure": 714,
      "di": 715,
      "ner": 716,
      "window": 717,
      "ature": 718,
      "imple": 719,
      "She": 720,
      "Ser": 721,
      "cre": 722,
      "ating": 723,
      "ical": 724,
      "imp": 725,
      "clo": 726,
      "det": 727,
      "ule": 728,
      "present": 729,
      "system": 730,
      "SA": 731,
      "],": 732,
      "b5": 733,
      "just": 734,
      "ject": 735,
      "ose": 736,
      "ered": 737,
      "ared": 738,
      "ength": 739,
      "11": 740,
      "low": 741,
      "ms": 742,
      "ste": 743,
      "ates": 744,
      "29": 745,
      "ST": 746,
      "ek": 747,
      "ia": 748,
      "la": 749,
      "local": 750,
      "defin": 751,
      "ility": 752,
      "Th": 753,
      "round": 754,
      "yet": 755,
      "urity": 756,
      "law": 757,
      "bas": 758,
      "ction": 759,
      "bed": 760,
      "without": 761,
      "herself": 762,
      "num": 763,
      "dist": 764,
      "gener": 765,
      "hear": 766,
      "ished": 767,
      "action": 768,
      "host": 769,
      "server": 770,
      "-+-+-+-+-+-+-+-+": 771,
      "Then": 772,
      "docu": 773,
      "course": 774,
      "II": 775,
      "ail": 776,
      "pos": 777,
      "urned": 778,
      "appe": 779,
      "ON": 780,
      "mind": 781,
      "andards": 782,
      "much": 783,
      "frag": 784,
      "rece": 785,
      "ens": 786,
      "eyes": 787,
      "began": 788,
      "HAP": 789,
      "document": 790,
      "dr": 791,
      "vo": 792,
      "once": 793,
      "CHAP": 794,
      "client": 795,
      "gu": 796,
      "though": 797,
      "saw": 798,
      "mission": 799,
      "first": 800,
      "CHAPTER": 801,
      "mess": 802,
      "htt": 803,
      "won": 804,
      "vel": 805,
      "looked": 806,
      "dark": 807,
      "source": 808,
      "ual": 809,
      "ved": 810,
      "yer": 811,
      "oun": 812,
      "ross": 813,
      "-----+": 814,
      "ET": 815,
      "ions": 816,
      "cept": 817,
      "dear": 818,
      "ways": 819,
      "TTP": 820,
      "lay": 821,
      "sof": 822,
      "sing": 823,
      "another": 824,
      "still": 825,
      "nothing": 826,
      "small": 827,
      "So": 828,
      "bro": 829,
      "stand": 830,
      "while": 831,
      "myself": 832,
      "dep": 833,
      "ification": 834,
      "try": 835,
      "aking": 836,
      "Trans": 837,
      "shake": 838,
      "Standards": 839,
      "IN": 840,
      "If": 841,
      "cry": 842,
      "make": 843,
      "ween": 844,
      "type": 845,
      "HTTP": 846,
      "cle": 847,
      "description": 848,
      "EN": 849,
      "dec": 850,
      "length": 851,
      "log": 852,
      "resp": 853,
      "near": 854,
      "follow": 855,
      "ait": 856,
      "hal": 857,
      "between": 858,
      "Not": 859,
      "Sec": 860,
      "ily": 861,
      "men": 862,
      "tim": 863,
      "hen": 864,
      "ected": 865,
      "Hell": 866,
      "e5": 867,
      "ward": 868,
      "comp": 869,
      "communication": 870,
      "//": 871,
      "://": 872,
      "arm": 873,
      "vis": 874,
      "being": 875,
      "change": 876,
      "ences": 877,
      "As": 878,
      "For": 879,
      "wr": 880,
      "those": 881,
      "Track": 882,
      "lawyer": 883,
      "ctor": 884,
      "lt": 885,
      "lar": 886,
      "rep": 887,
      "ft": 888,
      "ix": 889,
      "heard": 890,
      "HE": 891,
      "Hy": 892,
      "How": 893,
      "fic": 894,
      "gor": 895,
      "atch": 896,
      "deed": 897,
      "pose": 898,
      "module": 899,
      "............................": 900,
      "rew": 901,
      "life": 902,
      "mentation": 903,
      "What": 904,
      "cur": 905,
      "find": 906,
      "allow": 907,
      "things": 908,
      "_ref": 909,
      "case": 910,
      "ded": 911,
      "dif": 912,
      "gent": 913,
      "spe": 914,
      "quite": 915,
      "last": 916,
      "ember": 917,
      "ulti": 918,
      "uct": 919,
      "sid": 920,
      "},": 921,
      "_name": 922,
      "fac": 923,
      "gust": 924,
      "arch": 925,
      "soon": 926,
      "url": 927,
      "ques": 928,
      "poss": 929,
      "ended": 930,
      "ular": 931,
      "both": 932,
      "....................................................": 933,
      "source_name": 934,
      "half": 935,
      "When": 936,
      "ven": 937,
      "reg": 938,
      "took": 939,
      "ache": 940,
      "fort": 941,
      "EC": 942,
      "Po": 943,
      "ient": 944,
      "level": 945,
      "fire": 946,
      "application": 947,
      "service": 948,
      "rather": 949,
      "soft": 950,
      "81": 951,
      "An": 952,
      "Net": 953,
      "cap": 954,
      "dou": 955,
      "asked": 956,
      "Control": 957,
      "Hyde": 958,
      "Ma": 959,
      "My": 960,
      "cus": 961,
      "den": 962,
      "main": 963,
      "ving": 964,
      "vers": 965,
      "something": 966,
      "Dr": 967,
      "To": 968,
      "itation": 969,
      "Do": 970,
      "dest": 971,
      "var": 972,
      "ination": 973,
      "moment": 974,
      "sub": 975,
      "ameters": 976,
      "ears": 977,
      "mber": 978,
      "next": 979,
      "ys": 980,
      "ech": 981,
      "gorith": 982,
      "00": 983,
      "cha": 984,
      "mar": 985,
      "ina": 986,
      "incl": 987,
      "reas": 988,
      "ats": 989,
      "too": 990,
      "three": 991,
      "child": 992,
      "high": 993,
      "ificate": 994,
      "78": 995,
      "AN": 996,
      "No": 997,
      "pes": 998,
      "ater": 999,
      "feel": 1000,
      "himself": 1001,
      "Requ": 1002,
      "Engl": 1003,
      "August": 1004,
      "ling": 1005,
      "does": 1006,
      "tell": 1007,
      "ferences": 1008,
      "street": 1009,
      "number": 1010,
      "AR": 1011,
      "fun": 1012,
      "ory": 1013,
      "also": 1014,
      "happ": 1015,
      "52": 1016,
      "ib": 1017,
      "ither": 1018,
      "same": 1019,
      "fect": 1020,
      "pers": 1021,
      "send": 1022,
      "iness": 1023,
      "ings": 1024,
      "enter": 1025,
      "networks": 1026,
      "Co": 1027,
      "hur": 1028,
      "ired": 1029,
      "information": 1030,
      "ery": 1031,
      "goti": 1032,
      "thentication": 1033,
      "driver": 1034,
      "receiv": 1035,
      "Dat": 1036,
      "sil": 1037,
      "inc": 1038,
      "ative": 1039,
      "chan": 1040,
      "cond": 1041,
      "Be": 1042,
      "RO": 1043,
      "Ret": 1044,
      "wait": 1045,
      "looking": 1046,
      "ready": 1047,
      "Server": 1048,
      "https": 1049,
      "question": 1050,
      "bu": 1051,
      "hard": 1052,
      "pur": 1053,
      "walk": 1054,
      "ened": 1055,
      "seen": 1056,
      "certain": 1057,
      "sit": 1058,
      "white": 1059,
      "abl": 1060,
      "2018": 1061,
      "ptember": 1062,
      "strange": 1063,
      "eved": 1064,
      "called": 1065,
      "ipher": 1066,
      "1981": 1067,
      "September": 1068,
      "At": 1069,
      "fall": 1070,
      "sort": 1071,
      "gentle": 1072,
      "25": 1073,
      "ding": 1074,
      "ged": 1075,
      "reli": 1076,
      "direc": 1077,
      ".\",": 1078,
      "Jek": 1079,
      "away": 1080,
      "sent": 1081,
      "ude": 1082,
      "yll": 1083,
      "order": 1084,
      "sever": 1085,
      "left": 1086,
      "ternal": 1087,
      "cover": 1088,
      "ify": 1089,
      "known": 1090,
      "request": 1091,
      "wonder": 1092,
      "Hello": 1093,
      "Jekyll": 1094,
      "Di": 1095,
      "gate": 1096,
      "star": 1097,
      "ides": 1098,
      "supp": 1099,
      "ody": 1100,
      "gram": 1101,
      "prise": 1102,
      "ize": 1103,
      "ken": 1104,
      "pack": 1105,
      "They": 1106,
      "uction": 1107,
      "minut": 1108,
      "Mess": 1109,
      "ew": 1110,
      "ible": 1111,
      "ently": 1112,
      "chang": 1113,
      "abbit": 1114,
      "tive": 1115,
      "home": 1116,
      "parameters": 1117,
      "encry": 1118,
      "Well": 1119,
      "SS": 1120,
      "bits": 1121,
      "pho": 1122,
      "woman": 1123,
      "created": 1124,
      "times": 1125,
      "On": 1126,
      "glo": 1127,
      "kind": 1128,
      "ense": 1129,
      "ents": 1130,
      "Al": 1131,
      "Mouse": 1132,
      "icro": 1133,
      "among": 1134,
      "deep": 1135,
      "using": 1136,
      "external": 1137,
      "modified": 1138,
      "identity": 1139,
      "voice": 1140,
      "1b": 1141,
      "Cert": 1142,
      "sat": 1143,
      "indeed": 1144,
      "tow": 1145,
      "ics": 1146,
      "place": 1147,
      "Cha": 1148,
      "grow": 1149,
      "ma": 1150,
      "pec": 1151,
      "pap": 1152,
      "sur": 1153,
      "sup": 1154,
      "ult": 1155,
      "marking": 1156,
      "4b": 1157,
      "Client": 1158,
      "Key": 1159,
      "prec": 1160,
      "ptograph": 1161,
      "sw": 1162,
      "take": 1163,
      "ons": 1164,
      "ale": 1165,
      "ady": 1166,
      "fear": 1167,
      "plain": 1168,
      "protocols": 1169,
      "however": 1170,
      "sider": 1171,
      "Maj": 1172,
      "photograph": 1173,
      "80": 1174,
      "ION": 1175,
      "ched": 1176,
      "nec": 1177,
      "ran": 1178,
      "exam": 1179,
      "pleas": 1180,
      "words": 1181,
      "appeared": 1182,
      "large": 1183,
      "Oh": 1184,
      "heav": 1185,
      "aced": 1186,
      "unt": 1187,
      "cket": 1188,
      "morning": 1189,
      "5e": 1190,
      "Section": 1191,
      "cb": 1192,
      "ele": 1193,
      "gment": 1194,
      "run": 1195,
      "years": 1196,
      "ince": 1197,
      "ath": 1198,
      "enough": 1199,
      "ices": 1200,
      "sol": 1201,
      "interest": 1202,
      "book": 1203,
      "corla": 1204,
      "Rescorla": 1205,
      "doub": 1206,
      "function": 1207,
      "Data": 1208,
      "wish": 1209,
      "inst": 1210,
      "ash": 1211,
      "algorith": 1212,
      "need": 1213,
      "object": 1214,
      "based": 1215,
      "cr": 1216,
      "crow": 1217,
      "coun": 1218,
      "ler": 1219,
      "oper": 1220,
      "remark": 1221,
      "love": 1222,
      "cho": 1223,
      "indic": 1224,
      "few": 1225,
      "draw": 1226,
      "gentleman": 1227,
      "+-----+": 1228,
      ".,": 1229,
      "0c": 1230,
      "829": 1231,
      "90": 1232,
      "IT": 1233,
      "RE": 1234,
      "_by": 1235,
      "aut": 1236,
      "py": 1237,
      "pter": 1238,
      "pair": 1239,
      "rieved": 1240,
      "del": 1241,
      "spir": 1242,
      "ause": 1243,
      "angu": 1244,
      "..............................................": 1245,
      "fragment": 1246,
      "Request": 1247,
      "external_": 1248,
      "Chapter": 1249,
      "AC": 1250,
      "lied": 1251,
      "une": 1252,
      "That": 1253,
      "cab": 1254,
      "jo": 1255,
      "late": 1256,
      "ins": 1257,
      "oud": 1258,
      "pped": 1259,
      "sions": 1260,
      "cried": 1261,
      "security": 1262,
      "Security": 1263,
      "ibility": 1264,
      "minutes": 1265,
      "08": 1266,
      "6e5": 1267,
      "8b5": 1268,
      "CO": 1269,
      "Rec": 1270,
      "bus": 1271,
      "cas": 1272,
      "c78": 1273,
      "d1b": 1274,
      "hy": 1275,
      "hors": 1276,
      "org": 1277,
      "aster": 1278,
      "uring": 1279,
      "esty": 1280,
      "struct": 1281,
      "contin": 1282,
      "oct": 1283,
      "----------------": 1284,
      "4611": 1285,
      "header": 1286,
      "40b5": 1287,
      "transmit": 1288,
      "import": 1289,
      "definition": 1290,
      "person": 1291,
      "Retrieved": 1292,
      "several": 1293,
      "5e40b5": 1294,
      "cb6e5": 1295,
      "doubt": 1296,
      "0c4b": 1297,
      "8297": 1298,
      "_by_ref": 1299,
      "8b55e40b5": 1300,
      "c78cb6e5": 1301,
      "d1b8b55e40b5": 1302,
      "horses": 1303,
      "Bo": 1304,
      "Count": 1305,
      "care": 1306,
      "hour": 1307,
      "io": 1308,
      "hel": 1309,
      "err": 1310,
      "ict": 1311,
      "program": 1312,
      "handshake": 1313,
      "partic": 1314,
      "King": 1315,
      "Rabbit": 1316,
      "dress": 1317,
      "giv": 1318,
      "mon": 1319,
      "por": 1320,
      "itor": 1321,
      "member": 1322,
      "whom": 1323,
      "prot": 1324,
      "poor": 1325,
      "answ": 1326,
      "differ": 1327,
      "AT": 1328,
      "Citation": 1329,
      "don": 1330,
      "land": 1331,
      "talk": 1332,
      "top": 1333,
      "negoti": 1334,
      "datagrams": 1335,
      "destination": 1336,
      "Majesty": 1337,
      "Lo": 1338,
      "far": 1339,
      "ped": 1340,
      "sound": 1341,
      "ug": 1342,
      "lec": 1343,
      "within": 1344,
      "conf": 1345,
      "passed": 1346,
      "view": 1347,
      "thentic": 1348,
      "pow": 1349,
      "als": 1350,
      "char": 1351,
      "fron": 1352,
      "English": 1353,
      "Ty": 1354,
      "dden": 1355,
      "fam": 1356,
      "lam": 1357,
      "lady": 1358,
      "ng": 1359,
      "tory": 1360,
      "....................": 1361,
      "user": 1362,
      "sudden": 1363,
      "felt": 1364,
      "ured": 1365,
      "secret": 1366,
      "against": 1367,
      "father": 1368,
      "understand": 1369,
      "provide": 1370,
      "better": 1371,
      "pub": 1372,
      "message": 1373,
      "encryption": 1374,
      "Certificate": 1375,
      "ptographic": 1376,
      "**": 1377,
      "THE": 1378,
      "block": 1379,
      "list": 1380,
      "sle": 1381,
      "ull": 1382,
      "ream": 1383,
      "show": 1384,
      "ship": 1385,
      "Authentication": 1386,
      "following": 1387,
      "icrosoft": 1388,
      "HO": 1389,
      "dro": 1390,
      "either": 1391,
      "gri": 1392,
      "ering": 1393,
      "rel": 1394,
      "rest": 1395,
      "ars": 1396,
      "roll": 1397,
      "road": 1398,
      "lear": 1399,
      "became": 1400,
      "cell": 1401,
      "ains": 1402,
      "ization": 1403,
      "country": 1404,
      "26": 1405,
      ":--": 1406,
      "Att": 1407,
      "Let": 1408,
      "ci": 1409,
      "sou": 1410,
      "spo": 1411,
      "uck": 1412,
      "ansp": 1413,
      "mechan": 1414,
      "suc": 1415,
      "sum": 1416,
      "interface": 1417,
      "2008": 1418,
      "control": 1419,
      "matter": 1420,
      "value": 1421,
      "Transmission": 1422,
      "enterprise": 1423,
      "mechanis": 1424,
      "hun": 1425,
      "nor": 1426,
      "turn": 1427,
      "watch": 1428,
      "ited": 1429,
      "ities": 1430,
      "always": 1431,
      "already": 1432,
      "ster": 1433,
      "code": 1434,
      "ribut": 1435,
      "true": 1436,
      "Head": 1437,
      "anger": 1438,
      "eye": 1439,
      "fully": 1440,
      "example": 1441,
      "59": 1442,
      "Lond": 1443,
      "cir": 1444,
      "knew": 1445,
      "mine": 1446,
      "sir": 1447,
      "tly": 1448,
      "ined": 1449,
      "represent": 1450,
      "nel": 1451,
      "ules": 1452,
      "aken": 1453,
      "design": 1454,
      "stream": 1455,
      "processes": 1456,
      "close": 1457,
      "necess": 1458,
      "London": 1459,
      "04": 1460,
      "84": 1461,
      "body": 1462,
      "cent": 1463,
      "done": 1464,
      "multi": 1465,
      "plo": 1466,
      "size": 1467,
      "turned": 1468,
      "ability": 1469,
      "establ": 1470,
      "...........................................": 1471,
      "described": 1472,
      "-+-+-+-+-+-+-+-+-+-+-+-+-+-+-+-+": 1473,
      "changed": 1474,
      "Record": 1475,
      "Un": 1476,
      "bc": 1477,
      "vir": 1478,
      "hem": 1479,
      "rod": 1480,
      "ention": 1481,
      "haps": 1482,
      "hold": 1483,
      "returned": 1484,
      "clear": 1485,
      "custo": 1486,
      "vari": 1487,
      "cross": 1488,
      "gave": 1489,
      "till": 1490,
      "ware": 1491,
      "ero": 1492,
      "remember": 1493,
      "itive": 1494,
      "toge": 1495,
      "promis": 1496,
      "empt": 1497,
      "igure": 1498,
      "whose": 1499,
      "hands": 1500,
      "glass": 1501,
      "signature": 1502,
      "particular": 1503,
      "front": 1504,
      "together": 1505,
      "71": 1506,
      "MU": 1507,
      "hind": 1508,
      "mid": 1509,
      "pret": 1510,
      "swe": 1511,
      "tri": 1512,
      "onse": 1513,
      "told": 1514,
      "ute": 1515,
      "...................................": 1516,
      "ush": 1517,
      "qui": 1518,
      "byte": 1519,
      "2016": 1520,
      "ants": 1521,
      "going": 1522,
      "placed": 1523,
      "whole": 1524,
      "added": 1525,
      "black": 1526,
      "exten": 1527,
      "calls": 1528,
      "provides": 1529,
      "position": 1530,
      "messages": 1531,
      "writ": 1532,
      "gateway": 1533,
      "public": 1534,
      ".’": 1535,
      "Br": 1536,
      "Hand": 1537,
      "LO": 1538,
      "Mo": 1539,
      "Pre": 1540,
      "RSA": 1541,
      "ff": 1542,
      "mb": 1543,
      "ph": 1544,
      "remain": 1545,
      "havi": 1546,
      "vector": 1547,
      "arent": 1548,
      "trust": 1549,
      "authentic": 1550,
      "secure": 1551,
      "depend": 1552,
      "LL": 1553,
      "PRO": 1554,
      "ield": 1555,
      "ks": 1556,
      "ople": 1557,
      "vice": 1558,
      "ren": 1559,
      "ators": 1560,
      "ital": 1561,
      "sequ": 1562,
      "state": 1563,
      "beaut": 1564,
      "people": 1565,
      "isting": 1566,
      "actic": 1567,
      "ledge": 1568,
      "communic": 1569,
      "stood": 1570,
      "Application": 1571,
      "reason": 1572,
      "Dif": 1573,
      "God": 1574,
      "His": 1575,
      "One": 1576,
      "PS": 1577,
      "].": 1578,
      "cup": 1579,
      "eat": 1580,
      "eas": 1581,
      "gn": 1582,
      "oh": 1583,
      "port": 1584,
      "tre": 1585,
      "table": 1586,
      "ub": 1587,
      "uint": 1588,
      "ermin": 1589,
      "along": 1590,
      "second": 1591,
      "imag": 1592,
      "ushed": 1593,
      "appro": 1594,
      "doctor": 1595,
      "strong": 1596,
      "cannot": 1597,
      ".................................................": 1598,
      "common": 1599,
      ".............................................": 1600,
      "addresses": 1601,
      "opened": 1602,
      "letter": 1603,
      "implement": 1604,
      "replied": 1605,
      "soul": 1606,
      "iate": 1607,
      "ience": 1608,
      "ues": 1609,
      "inte": 1610,
      "ries": 1611,
      "otion": 1612,
      "consider": 1613,
      "tric": 1614,
      "ney": 1615,
      "comple": 1616,
      "perhaps": 1617,
      "broken": 1618,
      "compan": 1619,
      "speak": 1620,
      "until": 1621,
      "continu": 1622,
      "success": 1623,
      "DE": 1624,
      "Yes": 1625,
      "best": 1626,
      "cause": 1627,
      "fur": 1628,
      "gre": 1629,
      "ring": 1630,
      "enum": 1631,
      "suf": 1632,
      "world": 1633,
      "windows": 1634,
      "received": 1635,
      "reliable": 1636,
      "covered": 1637,
      "42": 1638,
      "99": 1639,
      "All": 1640,
      "De": 1641,
      "Ire": 1642,
      "count": 1643,
      "dle": 1644,
      "four": 1645,
      "king": 1646,
      "pill": 1647,
      "taken": 1648,
      "want": 1649,
      "erman": 1650,
      "thor": 1651,
      "least": 1652,
      "---+": 1653,
      "ably": 1654,
      "iling": 1655,
      ".........................................": 1656,
      "specified": 1657,
      "defined": 1658,
      "aterpill": 1659,
      "anguage": 1660,
      "MUST": 1661,
      "havior": 1662,
      "Irene": 1663,
      "aterpillar": 1664,
      "fanc": 1665,
      "mer": 1666,
      "pa": 1667,
      "since": 1668,
      "ane": 1669,
      "across": 1670,
      "aged": 1671,
      "riage": 1672,
      "sho": 1673,
      "aff": 1674,
      "share": 1675,
      "effect": 1676,
      "logy": 1677,
      "faces": 1678,
      "help": 1679,
      "30": 1680,
      "Your": 1681,
      "hall": 1682,
      "ian": 1683,
      "nam": 1684,
      "tain": 1685,
      "text": 1686,
      "tried": 1687,
      "zero": 1688,
      "erly": 1689,
      "really": 1690,
      "almost": 1691,
      "mean": 1692,
      "acy": 1693,
      "cold": 1694,
      "lost": 1695,
      "young": 1696,
      "excell": 1697,
      "tra": 1698,
      "feet": 1699,
      "else": 1700,
      "record": 1701,
      "tors": 1702,
      "explo": 1703,
      "preced": 1704,
      "business": 1705,
      "different": 1706,
      "Caterpillar": 1707,
      "Now": 1708,
      "UR": 1709,
      "bre": 1710,
      "bal": 1711,
      "bot": 1712,
      "cipher": 1713,
      "hon": 1714,
      "nature": 1715,
      "ost": 1716,
      "pted": 1717,
      "yed": 1718,
      "itig": 1719,
      "ided": 1720,
      "..................................": 1721,
      "transp": 1722,
      "ills": 1723,
      "whether": 1724,
      "cker": 1725,
      "play": 1726,
      "..........................................": 1727,
      "curi": 1728,
      "flow": 1729,
      "require": 1730,
      ".....................................": 1731,
      "......................................": 1732,
      "support": 1733,
      "octets": 1734,
      "given": 1735,
      "Handshake": 1736,
      "22": 1737,
      "ES": 1738,
      "Ed": 1739,
      "Fr": 1740,
      "Sher": 1741,
      "ax": 1742,
      "creat": 1743,
      "drew": 1744,
      "fil": 1745,
      "ger": 1746,
      "gard": 1747,
      "tech": 1748,
      "xy": 1749,
      "behind": 1750,
      "endpoint": 1751,
      "coming": 1752,
      "Content": 1753,
      "connections": 1754,
      "Adler": 1755,
      "appear": 1756,
      "Some": 1757,
      "ysis": 1758,
      "towards": 1759,
      "Sherlock": 1760,
      "DR": 1761,
      "Here": 1762,
      "IC": 1763,
      "MI": 1764,
      "OF": 1765,
      "With": 1766,
      "bes": 1767,
      "mir": 1768,
      "rout": 1769,
      "smo": 1770,
      "uce": 1771,
      "ised": 1772,
      "ister": 1773,
      "arr": 1774,
      "having": 1775,
      "coach": 1776,
      "abo": 1777,
      "train": 1778,
      "shar": 1779,
      "hope": 1780,
      "fix": 1781,
      "five": 1782,
      "sym": 1783,
      "answered": 1784,
      "charac": 1785,
      "spoke": 1786,
      "complete": 1787,
      "excellent": 1788,
      "Field": 1789,
      "OR": 1790,
      "SP": 1791,
      "UL": 1792,
      "Window": 1793,
      "a8": 1794,
      "clock": 1795,
      "fet": 1796,
      "fact": 1797,
      "tem": 1798,
      "tactic": 1799,
      "ww": 1800,
      "init": 1801,
      "inary": 1802,
      "atus": 1803,
      "itel": 1804,
      "liar": 1805,
      "history": 1806,
      ".................................": 1807,
      "iful": 1808,
      "prod": 1809,
      "note": 1810,
      "selves": 1811,
      "types": 1812,
      "........................................................": 1813,
      "observ": 1814,
      "168": 1815,
      "ized": 1816,
      "Why": 1817,
      ".......................................": 1818,
      "expected": 1819,
      "darkness": 1820,
      "response": 1821,
      "5246": 1822,
      "certainly": 1823,
      "Message": 1824,
      "Bohem": 1825,
      "necessary": 1826,
      "roduction": 1827,
      "Windows": 1828,
      "itelisting": 1829,
      "21": 1830,
      "Ab": 1831,
      "Ar": 1832,
      "Par": 1833,
      "jud": 1834,
      "uman": 1835,
      "oup": 1836,
      "lled": 1837,
      "soci": 1838,
      "wel": 1839,
      "general": 1840,
      "possible": 1841,
      "chair": 1842,
      "packet": 1843,
      "paper": 1844,
      "spirit": 1845,
      "Ne": 1846,
      "bri": 1847,
      "os": 1848,
      "pict": 1849,
      "hes": 1850,
      "itself": 1851,
      "thus": 1852,
      "thod": 1853,
      "adv": 1854,
      "ournal": 1855,
      "lications": 1856,
      "shared": 1857,
      "ARP": 1858,
      "Come": 1859,
      "silence": 1860,
      "suppose": 1861,
      "heavy": 1862,
      "Type": 1863,
      "+----------------": 1864,
      "65": 1865,
      "Ac": 1866,
      "By": 1867,
      "Bill": 1868,
      "Ch": 1869,
      "Car": 1870,
      "Cipher": 1871,
      "German": 1872,
      "June": 1873,
      "OP": 1874,
      "d5": 1875,
      "flo": 1876,
      "full": 1877,
      "ga": 1878,
      "ging": 1879,
      "gments": 1880,
      "ias": 1881,
      "mal": 1882,
      "master": 1883,
      "ping": 1884,
      "tes": 1885,
      "selec": 1886,
      "memor": 1887,
      "coding": 1888,
      "ifies": 1889,
      "uses": 1890,
      "bytes": 1891,
      "Information": 1892,
      "augh": 1893,
      "class": 1894,
      "return": 1895,
      "occup": 1896,
      "corner": 1897,
      "required": 1898,
      "systems": 1899,
      "cryptographic": 1900,
      ".....................................................": 1901,
      "suddenly": 1902,
      "mechanism": 1903,
      "8446": 1904,
      "memory": 1905,
      "44": 1906,
      "79": 1907,
      "Lod": 1908,
      "Mod": 1909,
      "Pr": 1910,
      "SHA": 1911,
      "VI": 1912,
      "dream": 1913,
      "fing": 1914,
      "gy": 1915,
      "give": 1916,
      "making": 1917,
      "pot": 1918,
      "simple": 1919,
      "ank": 1920,
      "atter": 1921,
      "throw": 1922,
      "iony": 1923,
      "leg": 1924,
      "stick": 1925,
      "means": 1926,
      "model": 1927,
      "ference": 1928,
      "anything": 1929,
      "pression": 1930,
      "priv": 1931,
      "carry": 1932,
      "carried": 1933,
      "detection": 1934,
      "generally": 1935,
      "Briony": 1936,
      "garden": 1937,
      "Lodge": 1938,
      "Go": 1939,
      "Mitig": 1940,
      "Pass": 1941,
      "sed": 1942,
      "vol": 1943,
      "itude": 1944,
      "ands": 1945,
      "often": 1946,
      "ached": 1947,
      "delight": 1948,
      "except": 1949,
      "fell": 1950,
      "fellow": 1951,
      "avail": 1952,
      "vious": 1953,
      "anced": 1954,
      "ances": 1955,
      "possess": 1956,
      "includ": 1957,
      "purpose": 1958,
      "talking": 1959,
      "Attack": 1960,
      ",’": 1961,
      ".)": 1962,
      "8d": 1963,
      "Dina": 1964,
      "Gr": 1965,
      "Im": 1966,
      "_version": 1967,
      "b4": 1968,
      "bir": 1969,
      "brow": 1970,
      "ole": 1971,
      "pen": 1972,
      "troduction": 1973,
      "iss": 1974,
      "stud": 1975,
      "tions": 1976,
      "kept": 1977,
      "explain": 1978,
      "dog": 1979,
      "manage": 1980,
      "post": 1981,
      "Introduction": 1982,
      "mitig": 1983,
      "recated": 1984,
      "attention": 1985,
      "Conn": 1986,
      "contain": 1987,
      "...................................................": 1988,
      "fair": 1989,
      "getting": 1990,
      "transmission": 1991,
      "venture": 1992,
      "AppLo": 1993,
      "basic": 1994,
      "fragments": 1995,
      "deprecated": 1996,
      "..............................": 1997,
      "allows": 1998,
      "_refs": 1999,
      "Messages": 2000,
      "algorithms": 2001,
      "sleep": 2002,
      "sharp": 2003,
      "fixed": 2004,
      "Dinah": 2005,
      "AppLocker": 2006,
      "24": 2007,
      "MP": 2008,
      "March": 2009,
      "OT": 2010,
      "Spec": 2011,
      "bound": 2012,
      "dy": 2013,
      "din": 2014,
      "eag": 2015,
      "human": 2016,
      "mist": 2017,
      "sight": 2018,
      "references": 2019,
      "resol": 2020,
      "ality": 2021,
      "beli": 2022,
      "cogn": 2023,
      "forward": 2024,
      "lim": 2025,
      "uni": 2026,
      "manner": 2027,
      "ckets": 2028,
      "foot": 2029,
      "els": 2030,
      "Comm": 2031,
      "ficient": 2032,
      "books": 2033,
      "lamps": 2034,
      "viron": 2035,
      "character": 2036,
      "Mitigation": 2037,
      "/*": 2038,
      "23": 2039,
      "BO": 2040,
      "Dec": 2041,
      "Oper": 2042,
      "ben": 2043,
      "igh": 2044,
      "tw": 2045,
      "tic": 2046,
      "ze": 2047,
      "anal": 2048,
      "aste": 2049,
      "alt": 2050,
      "meet": 2051,
      "active": 2052,
      "libr": 2053,
      "suit": 2054,
      "safe": 2055,
      "ishment": 2056,
      "fail": 2057,
      "begin": 2058,
      "Exp": 2059,
      "saying": 2060,
      "subject": 2061,
      "remarked": 2062,
      "honour": 2063,
      "above": 2064,
      "*/": 2065,
      "2168": 2066,
      "45": 2067,
      "4e5": 2068,
      "57": 2069,
      "69": 2070,
      "Cache": 2071,
      "Journal": 2072,
      "MS": 2073,
      "NOT": 2074,
      "Up": 2075,
      "Vers": 2076,
      "_marking": 2077,
      "ather": 2078,
      "fan": 2079,
      "hig": 2080,
      "ked": 2081,
      "mou": 2082,
      "mbl": 2083,
      "mouse": 2084,
      "rate": 2085,
      "ually": 2086,
      "wol": 2087,
      "wild": 2088,
      "erks": 2089,
      "reet": 2090,
      "atures": 2091,
      "associ": 2092,
      "bel": 2093,
      "These": 2094,
      "ural": 2095,
      "proper": 2096,
      "usion": 2097,
      "irl": 2098,
      "move": 2099,
      "endix": 2100,
      "grity": 2101,
      "rect": 2102,
      "affic": 2103,
      "themselves": 2104,
      "option": 2105,
      "blue": 2106,
      "Street": 2107,
      "fa42": 2108,
      "patibility": 2109,
      "Exten": 2110,
      "Exchange": 2111,
      "puter": 2112,
      "heart": 2113,
      "hosts": 2114,
      "single": 2115,
      "Dodo": 2116,
      "feeling": 2117,
      "receiving": 2118,
      "Dierks": 2119,
      "created_by_ref": 2120,
      "maid": 2121,
      "802168": 2122,
      "object_marking": 2123,
      "external_id": 2124,
      "external_references": 2125,
      "Header": 2126,
      "multiple": 2127,
      "bc29": 2128,
      "71d5": 2129,
      "quiet": 2130,
      "sequence": 2131,
      "beautiful": 2132,
      "PSK": 2133,
      "further": 2134,
      "bottle": 2135,
      "a846": 2136,
      "8d90": 2137,
      "b4802168": 2138,
      "Connection": 2139,
      "4e51": 2140,
      "fa42a846": 2141,
      "object_marking_refs": 2142,
      "71d5b4802168": 2143,
      "35": 2144,
      "AL": 2145,
      "Cor": 2146,
      "Dig": 2147,
      "Doc": 2148,
      "Fin": 2149,
      "Id": 2150,
      "ML": 2151,
      "Microsoft": 2152,
      "Over": 2153,
      "Ro": 2154,
      "Sign": 2155,
      "];": 2156,
      "bur": 2157,
      "fast": 2158,
      "gone": 2159,
      "ror": 2160,
      "erated": 2161,
      "reach": 2162,
      "alone": 2163,
      "velo": 2164,
      "load": 2165,
      "sult": 2166,
      "domain": 2167,
      "file": 2168,
      "gold": 2169,
      "evident": 2170,
      "cloud": 2171,
      "box": 2172,
      "seems": 2173,
      "ordinary": 2174,
      "implementation": 2175,
      "III": 2176,
      "http": 2177,
      "However": 2178,
      "build": 2179,
      "functions": 2180,
      "algorithm": 2181,
      "continued": 2182,
      "library": 2183,
      "Ident": 2184,
      "Fro": 2185,
      "IF": 2186,
      "Nor": 2187,
      "Sha": 2188,
      "TO": 2189,
      "dry": 2190,
      "fre": 2191,
      "none": 2192,
      "taking": 2193,
      "wind": 2194,
      "anim": 2195,
      "assu": 2196,
      "iced": 2197,
      "sea": 2198,
      "meas": 2199,
      "acqu": 2200,
      "bell": 2201,
      "hair": 2202,
      "sole": 2203,
      "trave": 2204,
      "oney": 2205,
      "others": 2206,
      "knowledge": 2207,
      "aught": 2208,
      "keys": 2209,
      "smile": 2210,
      "certificate": 2211,
      "check": 2212,
      "steps": 2213,
      "INT": 2214,
      "hurried": 2215,
      "sitting": 2216,
      "instant": 2217,
      "month": 2218,
      "circ": 2219,
      "analysis": 2220,
      "From": 2221,
      "31": 2222,
      "41": 2223,
      "47": 2224,
      "50": 2225,
      "652": 2226,
      "AD": 2227,
      "IET": 2228,
      "May": 2229,
      "SE": 2230,
      "T1": 2231,
      "T17": 2232,
      "T00": 2233,
      "_spec": 2234,
      "aque": 2235,
      "bers": 2236,
      "hor": 2237,
      "rent": 2238,
      "segment": 2239,
      "accept": 2240,
      "ags": 2241,
      "ution": 2242,
      "chim": 2243,
      "socket": 2244,
      "cons": 2245,
      "ties": 2246,
      "2025": 2247,
      "aker": 2248,
      "desire": 2249,
      "stranger": 2250,
      "hash": 2251,
      "..................................................": 2252,
      "opaque": 2253,
      "passeng": 2254,
      "Enfield": 2255,
      "bring": 2256,
      "services": 2257,
      "17T00": 2258,
      "18T17": 2259,
      "attack_spec": 2260,
      "versions": 2261,
      "fields": 2262,
      "x_mitre_version": 2263,
      "x_mitre_modified": 2264,
      "x_mitre_deprecated": 2265,
      "x_mitre_attack_spec": 2266,
      "Appendix": 2267,
      "determin": 2268,
      "posed": 2269,
      "-----+-----+": 2270,
      "Transfer": 2271,
      "...............................": 2272,
      "Diary": 2273,
      "negotiation": 2274,
      "power": 2275,
      "extension": 2276,
      "Frag": 2277,
      "osity": 2278,
      "available": 2279,
      "mitigations": 2280,
      "Operation": 2281,
      "higher": 2282,
      "wolves": 2283,
      "652Z": 2284,
      "IETF": 2285,
      "x_mitre_modified_by_ref": 2286,
      "x_mitre_attack_spec_version": 2287,
      "33": 2288,
      "BER": 2289,
      "Me": 2290,
      "Mar": 2291,
      "Py": 2292,
      "Var": 2293,
      "bow": 2294,
      "cig": 2295,
      "fal": 2296,
      "ially": 2297,
      "mur": 2298,
      "ts": 2299,
      "lying": 2300,
      "delic": 2301,
      "keep": 2302,
      "quar": 2303,
      "ender": 2304,
      "shut": 2305,
      "ground": 2306,
      "avour": 2307,
      "mediate": 2308,
      "detail": 2309,
      "speaking": 2310,
      "England": 2311,
      "hardly": 2312,
      "cabin": 2313,
      "important": 2314,
      "family": 2315,
      "custom": 2316,
      "written": 2317,
      "fancy": 2318,
      "Bohemia": 2319,
      "false": 2320,
      "Gate": 2321,
      "Is": 2322,
      "Jon": 2323,
      "Wats": 2324,
      "__": 2325,
      "cer": 2326,
      "city": 2327,
      "during": 2328,
      "free": 2329,
      "figure": 2330,
      "past": 2331,
      "sun": 2332,
      "tou": 2333,
      "held": 2334,
      "ene": 2335,
      "environ": 2336,
      "lection": 2337,
      "cope": 2338,
      "ago": 2339,
      "convers": 2340,
      "exc": 2341,
      "exact": 2342,
      "resh": 2343,
      "comfort": 2344,
      "noble": 2345,
      "umst": 2346,
      "afra": 2347,
      "ishing": 2348,
      "ency": 2349,
      "prof": 2350,
      "marked": 2351,
      "prep": 2352,
      "story": 2353,
      "Note": 2354,
      "situ": 2355,
      "crowd": 2356,
      "hours": 2357,
      "***": 2358,
      "sufficient": 2359,
      "circumst": 2360,
      "Watson": 2361,
      "afraid": 2362,
      "60": 2363,
      "66": 2364,
      "92": 2365,
      "GU": 2366,
      "Hark": 2367,
      "ID": 2368,
      "Mina": 2369,
      "SHO": 2370,
      "cat": 2371,
      "cats": 2372,
      "eve": 2373,
      "grew": 2374,
      "girl": 2375,
      "hot": 2376,
      "ii": 2377,
      "mount": 2378,
      "test": 2379,
      "twent": 2380,
      "uliar": 2381,
      "although": 2382,
      "arri": 2383,
      "ica": 2384,
      "segments": 2385,
      "rose": 2386,
      "entire": 2387,
      "behavior": 2388,
      "users": 2389,
      "mother": 2390,
      "extra": 2391,
      "worth": 2392,
      "ecting": 2393,
      "intended": 2394,
      "format": 2395,
      "content": 2396,
      "ived": 2397,
      "itions": 2398,
      "key_": 2399,
      "1999": 2400,
      "specification": 2401,
      "connected": 2402,
      "fright": 2403,
      "prevent": 2404,
      "x_mitre_domain": 2405,
      "Seward": 2406,
      "voy": 2407,
      "decl": 2408,
      "Poole": 2409,
      "channel": 2410,
      "gloves": 2411,
      "element": 2412,
      "running": 2413,
      "precedence": 2414,
      "requirements": 2415,
      "ULD": 2416,
      "potent": 2417,
      "Version": 2418,
      "Extensions": 2419,
      "chimney": 2420,
      "Harker": 2421,
      "SHOULD": 2422,
      "x_mitre_domains": 2423,
      "68": 2424,
      "Her": 2425,
      "Multi": 2426,
      "Sy": 2427,
      "Tech": 2428,
      "Val": 2429,
      "cache": 2430,
      "dred": 2431,
      "ier": 2432,
      "ned": 2433,
      "tone": 2434,
      "war": 2435,
      "inted": 2436,
      "erial": 2437,
      "atory": 2438,
      "andom": 2439,
      "orig": 2440,
      "access": 2441,
      "conce": 2442,
      "exec": 2443,
      "outside": 2444,
      "fie": 2445,
      "authentication": 2446,
      "ivation": 2447,
      "passing": 2448,
      "passage": 2449,
      "laid": 2450,
      "distance": 2451,
      "standard": 2452,
      "ENT": 2453,
      "logical": 2454,
      "Hellman": 2455,
      "Network": 2456,
      "Beec": 2457,
      "hundred": 2458,
      "middle": 2459,
      "authenticated": 2460,
      "Diffie": 2461,
      "trees": 2462,
      "occupied": 2463,
      "finger": 2464,
      "Attacks": 2465,
      "origin": 2466,
      "64": 2467,
      "AP": 2468,
      "Af": 2469,
      "Or": 2470,
      "Prec": 2471,
      "da": 2472,
      "les": 2473,
      "ology": 2474,
      "rushed": 2475,
      "sens": 2476,
      "wide": 2477,
      "itted": 2478,
      "thon": 2479,
      "metric": 2480,
      "deal": 2481,
      "aret": 2482,
      "exchange": 2483,
      "pool": 2484,
      "comes": 2485,
      "aware": 2486,
      "former": 2487,
      "aving": 2488,
      "likely": 2489,
      "modules": 2490,
      "greatest": 2491,
      "flame": 2492,
      "lower": 2493,
      "guard": 2494,
      "nearly": 2495,
      "fortun": 2496,
      "pleasure": 2497,
      "error": 2498,
      "drove": 2499,
      "empty": 2500,
      "floor": 2501,
      "including": 2502,
      "extraordinary": 2503,
      "32": 2504,
      "61": 2505,
      "85": 2506,
      "97": 2507,
      "CA": 2508,
      "Cry": 2509,
      "DSA": 2510,
      "DIN": 2511,
      "DHE": 2512,
      "EM": 2513,
      "Ent": 2514,
      "Lay": 2515,
      "blo": 2516,
      "ces": 2517,
      "ges": 2518,
      "lot": 2519,
      "language": 2520,
      "microsoft": 2521,
      "nc": 2522,
      "ny": 2523,
      "rap": 2524,
      "rang": 2525,
      "sor": 2526,
      "snow": 2527,
      "tale": 2528,
      "wn": 2529,
      "refer": 2530,
      "enjo": 2531,
      "isted": 2532,
      "asy": 2533,
      "tern": 2534,
      "why": 2535,
      "whitelisting": 2536,
      "admir": 2537,
      "liked": 2538,
      "ching": 2539,
      "sockets": 2540,
      "proc": 2541,
      "proxy": 2542,
      "super": 2543,
      "resource": 2544,
      "quick": 2545,
      "shel": 2546,
      "sail": 2547,
      "traffic": 2548,
      "ending": 2549,
      "ulation": 2550,
      "nowled": 2551,
      "worse": 2552,
      "features": 2553,
      "fog": 2554,
      "2014": 2555,
      "2017": 2556,
      "pport": 2557,
      "ntax": 2558,
      "fered": 2559,
      "actual": 2560,
      "pract": 2561,
      "passion": 2562,
      "specifies": 2563,
      "engaged": 2564,
      "applications": 2565,
      "servant": 2566,
      "friends": 2567,
      "Adventure": 2568,
      "priate": 2569,
      "signed": 2570,
      "queer": 2571,
      "evening": 2572,
      "iously": 2573,
      "layer": 2574,
      "visitor": 2575,
      "Polic": 2576,
      "double": 2577,
      "various": 2578,
      "sending": 2579,
      "walked": 2580,
      "fallen": 2581,
      "gateways": 2582,
      "started": 2583,
      "deeply": 2584,
      "ClientHello": 2585,
      "indicates": 2586,
      "transmitted": 2587,
      "2616": 2588,
      "appropriate": 2589,
      "integrity": 2590,
      "affection": 2591,
      "curiosity": 2592,
      "Fielding": 2593,
      "+------------------------": 2594,
      "unique": 2595,
      "key_share": 2596,
      "pportun": 2597,
      "58": 2598,
      "IV": 2599,
      "Le": 2600,
      "MAC": 2601,
      "NN": 2602,
      "Rel": 2603,
      "Su": 2604,
      "Such": 2605,
      "Yet": 2606,
      "ca": 2607,
      "line": 2608,
      "mn": 2609,
      "mag": 2610,
      "motion": 2611,
      "money": 2612,
      "nice": 2613,
      "ris": 2614,
      "slow": 2615,
      "six": 2616,
      "task": 2617,
      "tual": 2618,
      "uro": 2619,
      "hered": 2620,
      "inqu": 2621,
      "istr": 2622,
      "ishes": 2623,
      "whis": 2624,
      "deli": 2625,
      "usual": 2626,
      "doing": 2627,
      "emplo": 2628,
      "ols": 2629,
      "struck": 2630,
      "cler": 2631,
      "brought": 2632,
      "raise": 2633,
      "ificates": 2634,
      "Service": 2635,
      "include": 2636,
      "SSL": 2637,
      "papers": 2638,
      "ports": 2639,
      "imagine": 2640,
      "companion": 2641,
      "break": 2642,
      "private": 2643,
      "evidently": 2644,
      "AE": 2645,
      "Ah": 2646,
      "Of": 2647,
      "Qu": 2648,
      "bad": 2649,
      "cand": 2650,
      "glim": 2651,
      "jum": 2652,
      "ls": 2653,
      "latter": 2654,
      "pay": 2655,
      "simp": 2656,
      "wards": 2657,
      "asp": 2658,
      "seat": 2659,
      "separ": 2660,
      "leave": 2661,
      "stay": 2662,
      "method": 2663,
      "bear": 2664,
      "covery": 2665,
      "ceed": 2666,
      "loved": 2667,
      "limit": 2668,
      "ession": 2669,
      "aps": 2670,
      "week": 2671,
      "ustr": 2672,
      "Indeed": 2673,
      "peri": 2674,
      "mitted": 2675,
      "plan": 2676,
      "ples": 2677,
      "evil": 2678,
      "therefore": 2679,
      "yourself": 2680,
      "itional": 2681,
      "lighted": 2682,
      "ches": 2683,
      "hurry": 2684,
      "waited": 2685,
      "questions": 2686,
      "start": 2687,
      "peculiar": 2688,
      "dressed": 2689,
      "Model": 2690,
      "sympat": 2691,
      "Negoti": 2692,
      "Imple": 2693,
      "months": 2694,
      "twenty": 2695,
      "70": 2696,
      "77": 2697,
      "94": 2698,
      "95": 2699,
      "Cal": 2700,
      "Figure": 2701,
      "Loc": 2702,
      "Length": 2703,
      "NSA": 2704,
      "NET": 2705,
      "Pres": 2706,
      "TION": 2707,
      "Will": 2708,
      "Who": 2709,
      "Where": 2710,
      "big": 2711,
      "bright": 2712,
      "hills": 2713,
      "iver": 2714,
      "lest": 2715,
      "pup": 2716,
      "sister": 2717,
      "hey": 2718,
      "inj": 2719,
      "ines": 2720,
      "incre": 2721,
      "anx": 2722,
      "anted": 2723,
      "thes": 2724,
      "ision": 2725,
      "arrow": 2726,
      "station": 2727,
      "met": 2728,
      "accor": 2729,
      "account": 2730,
      "agent": 2731,
      "unknown": 2732,
      "ury": 2733,
      "contr": 2734,
      "noticed": 2735,
      "sake": 2736,
      "ainted": 2737,
      "acknowled": 2738,
      "tired": 2739,
      "omen": 2740,
      "ounds": 2741,
      "2010": 2742,
      "sometimes": 2743,
      "tears": 2744,
      "akes": 2745,
      "ressed": 2746,
      "cript": 2747,
      "howling": 2748,
      "glad": 2749,
      "TCPs": 2750,
      "Status": 2751,
      "syntax": 2752,
      "References": 2753,
      "early": 2754,
      "earli": 2755,
      "specify": 2756,
      "correct": 2757,
      "flu": 2758,
      "previous": 2759,
      "patient": 2760,
      "material": 2761,
      "morrow": 2762,
      "cheque": 2763,
      "carriage": 2764,
      "Compatibility": 2765,
      "larger": 2766,
      "regard": 2767,
      "software": 2768,
      "versar": 2769,
      "reasse": 2770,
      "happen": 2771,
      "direction": 2772,
      "gloom": 2773,
      "Alert": 2774,
      "Algorith": 2775,
      "growing": 2776,
      "ATION": 2777,
      "learn": 2778,
      "swept": 2779,
      "pictures": 2780,
      "bird": 2781,
      "management": 2782,
      "Commands": 2783,
      "associated": 2784,
      "Vari": 2785,
      "Beechey": 2786,
      "Layer": 2787,
      "Bas": 2788,
      "Baker": 2789,
      "Fil": 2790,
      "Mon": 2791,
      "Pri": 2792,
      "QU": 2793,
      "XX": 2794,
      "cut": 2795,
      "dig": 2796,
      "eight": 2797,
      "gin": 2798,
      "ime": 2799,
      "jour": 2800,
      "laugh": 2801,
      "mot": 2802,
      "mass": 2803,
      "pent": 2804,
      "ron": 2805,
      "ume": 2806,
      "attr": 2807,
      "edia": 2808,
      "alth": 2809,
      "search": 2810,
      "lead": 2811,
      "stair": 2812,
      "aces": 2813,
      "because": 2814,
      "verse": 2815,
      "lips": 2816,
      "immediate": 2817,
      "proble": 2818,
      "irst": 2819,
      "notice": 2820,
      "qual": 2821,
      "aint": 2822,
      "ilities": 2823,
      "shout": 2824,
      "tily": 2825,
      "perce": 2826,
      "istic": 2827,
      "ously": 2828,
      "Process": 2829,
      "party": 2830,
      "aching": 2831,
      "section": 2832,
      "fault": 2833,
      "matters": 2834,
      "days": 2835,
      "ancing": 2836,
      "closed": 2837,
      "brother": 2838,
      "diffic": 2839,
      "Post": 2840,
      "marriage": 2841,
      "inct": 2842,
      "powers": 2843,
      "representation": 2844,
      "promise": 2845,
      "easily": 2846,
      "appearance": 2847,
      "produc": 2848,
      "mouth": 2849,
      "consist": 2850,
      "NI": 2851,
      "TP": 2852,
      "ming": 2853,
      "mad": 2854,
      "mask": 2855,
      "nat": 2856,
      "sl": 2857,
      "sn": 2858,
      "swell": 2859,
      "atic": 2860,
      "enance": 2861,
      "itz": 2862,
      "tools": 2863,
      "escap": 2864,
      "arms": 2865,
      "ential": 2866,
      "tering": 2867,
      "cost": 2868,
      "idence": 2869,
      "uture": 2870,
      "concept": 2871,
      "save": 2872,
      "perfect": 2873,
      "group": 2874,
      "somewhat": 2875,
      "attempt": 2876,
      "formed": 2877,
      "handed": 2878,
      "Protocols": 2879,
      "occur": 2880,
      "rooms": 2881,
      "provided": 2882,
      "singular": 2883,
      "followed": 2884,
      "current": 2885,
      "onses": 2886,
      "pleasant": 2887,
      "protection": 2888,
      "fami": 2889,
      "showed": 2890,
      "ploit": 2891,
      "pretty": 2892,
      "easy": 2893,
      "files": 2894,
      "brief": 2895,
      "solemn": 2896,
      "environment": 2897,
      "conversation": 2898,
      "circumstances": 2899,
      "After": 2900,
      "sympathy": 2901,
      "27": 2902,
      "39": 2903,
      "51": 2904,
      "55": 2905,
      "72": 2906,
      "Def": 2907,
      "Er": 2908,
      "Est": 2909,
      "Face": 2910,
      "Gener": 2911,
      "Hen": 2912,
      "Host": 2913,
      "Lany": 2914,
      "Nort": 2915,
      "Open": 2916,
      "PC": 2917,
      "Str": 2918,
      "T10": 2919,
      "\\\\": 2920,
      "_I": 2921,
      "catch": 2922,
      "cult": 2923,
      "dam": 2924,
      "eth": 2925,
      "fine": 2926,
      "lab": 2927,
      "loun": 2928,
      "ners": 2929,
      "pse": 2930,
      "pounds": 2931,
      "rich": 2932,
      "rush": 2933,
      "son": 2934,
      "sus": 2935,
      "shad": 2936,
      "sense": 2937,
      "tun": 2938,
      "tong": 2939,
      "uary": 2940,
      "wise": 2941,
      "water": 2942,
      "wanted": 2943,
      "za": 2944,
      "—”": 2945,
      "”--": 2946,
      "inference": 2947,
      "oned": 2948,
      "orted": 2949,
      "seas": 2950,
      "bey": 2951,
      "terms": 2952,
      "chor": 2953,
      "myster": 2954,
      "def": 2955,
      "moon": 2956,
      "exist": 2957,
      "polit": 2958,
      "ources": 2959,
      "weak": 2960,
      "ends": 2961,
      "shown": 2962,
      "comb": 2963,
      "computer": 2964,
      "-------+": 2965,
      "peas": 2966,
      "dates": 2967,
      "assign": 2968,
      "pping": 2969,
      "desired": 2970,
      "attribut": 2971,
      "Consider": 2972,
      "foreign": 2973,
      "contents": 2974,
      "prised": 2975,
      "frame": 2976,
      "Web": 2977,
      "Encry": 2978,
      "via": 2979,
      "...............................................": 2980,
      "scene": 2981,
      "offset": 2982,
      "Interfaces": 2983,
      "pathi": 2984,
      "..........................": 2985,
      "proved": 2986,
      "vessel": 2987,
      "useful": 2988,
      "400": 2989,
      "transfer": 2990,
      "values": 2991,
      "ONT": 2992,
      "enses": 2993,
      "broad": 2994,
      "children": 2995,
      "ANET": 2996,
      "happened": 2997,
      "silent": 2998,
      "ServerHello": 2999,
      "requests": 3000,
      "kindness": 3001,
      "satis": 3002,
      "surprised": 3003,
      "swif": 3004,
      "athan": 3005,
      "drawing": 3006,
      "COL": 3007,
      "cases": 3008,
      "answer": 3009,
      "lamp": 3010,
      ".......................": 3011,
      "learning": 3012,
      "Letter": 3013,
      "designed": 3014,
      "customed": 3015,
      "extensions": 3016,
      "Prevent": 3017,
      "phys": 3018,
      "PROTO": 3019,
      "communicating": 3020,
      "uint8": 3021,
      "green": 3022,
      "www": 3023,
      "observed": 3024,
      "ARPANET": 3025,
      "Carpathi": 3026,
      "possessed": 3027,
      "brown": 3028,
      "dogs": 3029,
      "eagerly": 3030,
      "believe": 3031,
      "Overview": 3032,
      "Signature": 3033,
      "delicate": 3034,
      "Jonathan": 3035,
      "voyage": 3036,
      "Cryptographic": 3037,
      "Entity": 3038,
      "Policies": 3039,
      "increas": 3040,
      "earlier": 3041,
      "Establ": 3042,
      "Henry": 3043,
      "Lanyon": 3044,
      "Norton": 3045,
      "susp": 3046,
      "tunnel": 3047,
      "PROTOCOL": 3048,
      "88": 3049,
      "96": 3050,
      "Bu": 3051,
      "CB": 3052,
      "CK": 3053,
      "CS": 3054,
      "Cop": 3055,
      "Euro": 3056,
      "Found": 3057,
      "Mary": 3058,
      "RA": 3059,
      "Time": 3060,
      "Ver": 3061,
      "gg": 3062,
      "hous": 3063,
      "ky": 3064,
      "kne": 3065,
      "ml": 3066,
      "mix": 3067,
      "independ": 3068,
      "ones": 3069,
      "result": 3070,
      "andatory": 3071,
      "aring": 3072,
      "around": 3073,
      "seven": 3074,
      "entered": 3075,
      "ety": 3076,
      "lling": 3077,
      "chron": 3078,
      "death": 3079,
      "ife": 3080,
      "hadn": 3081,
      "pocket": 3082,
      "licit": 3083,
      "ulner": 3084,
      "odd": 3085,
      "Inst": 3086,
      "idea": 3087,
      "blind": 3088,
      "princ": 3089,
      "reading": 3090,
      "identification": 3091,
      "Contents": 3092,
      "pulled": 3093,
      "certificates": 3094,
      "putting": 3095,
      "label": 3096,
      "numer": 3097,
      "actions": 3098,
      "capital": 3099,
      "waiting": 3100,
      "instance": 3101,
      "importance": 3102,
      "secrets": 3103,
      "transport": 3104,
      "temper": 3105,
      "twice": 3106,
      "bowed": 3107,
      "murder": 3108,
      "journey": 3109,
      "pentine": 3110,
      "stairs": 3111,
      "Europe": 3112,
      "houses": 3113,
      "Flow": 3114,
      "IS": 3115,
      "Language": 3116,
      "Mem": 3117,
      "Non": 3118,
      "WMI": 3119,
      "bag": 3120,
      "caught": 3121,
      "equ": 3122,
      "fresh": 3123,
      "langu": 3124,
      "stor": 3125,
      "taste": 3126,
      "van": 3127,
      "yl": 3128,
      "“‘": 3129,
      "theory": 3130,
      "eness": 3131,
      "encoding": 3132,
      "oured": 3133,
      "arse": 3134,
      "stri": 3135,
      "step": 3136,
      "habit": 3137,
      "iding": 3138,
      "ational": 3139,
      "dev": 3140,
      "prove": 3141,
      "project": 3142,
      "concer": 3143,
      "shr": 3144,
      "interfaces": 3145,
      "hopes": 3146,
      "goes": 3147,
      "umber": 3148,
      "yours": 3149,
      "password": 3150,
      "ERT": 3151,
      "thank": 3152,
      "scar": 3153,
      "finished": 3154,
      "refers": 3155,
      "store": 3156,
      "clean": 3157,
      "armchair": 3158,
      "sides": 3159,
      "aches": 3160,
      "married": 3161,
      "pursu": 3162,
      "solute": 3163,
      "crowded": 3164,
      "operation": 3165,
      "listen": 3166,
      "turning": 3167,
      "establishment": 3168,
      "arently": 3169,
      "Deep": 3170,
      "creature": 3171,
      "smoke": 3172,
      "Good": 3173,
      "dinner": 3174,
      "assumed": 3175,
      "details": 3176,
      "System": 3177,
      "fortunate": 3178,
      "slowly": 3179,
      "jumped": 3180,
      "*}": 3181,
      "+-+-+-+-+-+-+-+-+-+-+-+-+-+-+-+-+": 3182,
      "43": 3183,
      "91": 3184,
      "AST": 3185,
      "Block": 3186,
      "Dis": 3187,
      "LAN": 3188,
      "Lory": 3189,
      "Other": 3190,
      "Sup": 3191,
      "Since": 3192,
      "Te": 3193,
      "Termin": 3194,
      "Use": 3195,
      "Very": 3196,
      "_very": 3197,
      "az": 3198,
      "band": 3199,
      "bark": 3200,
      "cou": 3201,
      "cher": 3202,
      "ee": 3203,
      "fig": 3204,
      "furn": 3205,
      "garet": 3206,
      "hum": 3207,
      "hide": 3208,
      "later": 3209,
      "opportun": 3210,
      "pi": 3211,
      "pal": 3212,
      "pet": 3213,
      "pag": 3214,
      "ray": 3215,
      "sim": 3216,
      "sledge": 3217,
      "u20": 3218,
      "v1": 3219,
      "vic": 3220,
      "yes": 3221,
      "èche": 3222,
      "rend": 3223,
      "reached": 3224,
      "atitude": 3225,
      "edition": 3226,
      "ison": 3227,
      "ashed": 3228,
      "offered": 3229,
      "threat": 3230,
      "art": 3231,
      "letters": 3232,
      "stone": 3233,
      "entity": 3234,
      "vember": 3235,
      "forgot": 3236,
      "chur": 3237,
      "solet": 3238,
      "prob": 3239,
      "emotion": 3240,
      "interconnected": 3241,
      "peers": 3242,
      "spl": 3243,
      "spect": 3244,
      "grave": 3245,
      "gov": 3246,
      "evol": 3247,
      "wood": 3248,
      "anges": 3249,
      "aves": 3250,
      "acts": 3251,
      "controll": 3252,
      "contains": 3253,
      "bless": 3254,
      "discovered": 3255,
      "obtain": 3256,
      "misery": 3257,
      "locker": 3258,
      "Reli": 3259,
      "Encoding": 3260,
      "apped": 3261,
      "calèche": 3262,
      "thinking": 3263,
      "Add": 3264,
      "Address": 3265,
      "lesson": 3266,
      "Resp": 3267,
      "Restric": 3268,
      "bedroom": 3269,
      "numbers": 3270,
      "servers": 3271,
      "fragmentation": 3272,
      "receiver": 3273,
      "smaller": 3274,
      "trying": 3275,
      "respond": 3276,
      "reply": 3277,
      "allowed": 3278,
      "ECIF": 3279,
      "November": 3280,
      "feelings": 3281,
      "doesn": 3282,
      "ibly": 3283,
      "sender": 3284,
      "Behavior": 3285,
      "starting": 3286,
      "town": 3287,
      "swit": 3288,
      "elements": 3289,
      "interested": 3290,
      "ITY": 3291,
      "spirits": 3292,
      "structure": 3293,
      "portion": 3294,
      "......................": 3295,
      "grief": 3296,
      "mechanisms": 3297,
      "variable": 3298,
      "enumerated": 3299,
      "curious": 3300,
      "ICATION": 3301,
      "routing": 3302,
      "SPECIF": 3303,
      "Accept": 3304,
      "OPEN": 3305,
      "select": 3306,
      "legal": 3307,
      "study": 3308,
      "dynam": 3309,
      "mbling": 3310,
      "properties": 3311,
      "Connections": 3312,
      "Finished": 3313,
      "passengers": 3314,
      "Margaret": 3315,
      "touched": 3316,
      "frightened": 3317,
      "potentially": 3318,
      "proced": 3319,
      "puppy": 3320,
      "according": 3321,
      "acknowledgment": 3322,
      "Algorithm": 3323,
      "birds": 3324,
      "Basic": 3325,
      "shadow": 3326,
      "beyond": 3327,
      "Encrypted": 3328,
      "swiftly": 3329,
      "Carpathians": 3330,
      "Verify": 3331,
      "+-+-+-+-+-+-+-+-+-+-+-+-+-+-+-+-+-+-+-+-+-+-+-+-+-+-+-+-+-+-+-+-+": 3332,
      "Terminology": 3333,
      "_very_": 3334,
      "figures": 3335,
      "church": 3336,
      "soletes": 3337,
      "SPECIFICATION": 3338,
      "IX": 3339,
      "Just": 3340,
      "ME": 3341,
      "OK": 3342,
      "Off": 3343,
      "Sto": 3344,
      "Tem": 3345,
      "War": 3346,
      "aid": 3347,
      "ban": 3348,
      "bor": 3349,
      "bar": 3350,
      "burned": 3351,
      "fill": 3352,
      "flic": 3353,
      "fash": 3354,
      "future": 3355,
      "jp": 3356,
      "kno": 3357,
      "mary": 3358,
      "nest": 3359,
      "ov": 3360,
      "v2": 3361,
      "wat": 3362,
      "women": 3363,
      "incor": 3364,
      "thed": 3365,
      "enco": 3366,
      "ende": 3367,
      "oups": 3368,
      "threw": 3369,
      "aly": 3370,
      "lean": 3371,
      "stage": 3372,
      "stery": 3373,
      "accustomed": 3374,
      "ham": 3375,
      "lli": 3376,
      "agree": 3377,
      "chance": 3378,
      "amed": 3379,
      "iration": 3380,
      "neigh": 3381,
      "interpre": 3382,
      "hood": 3383,
      "desc": 3384,
      "stra": 3385,
      "works": 3386,
      "ineering": 3387,
      "author": 3388,
      "retched": 3389,
      "glow": 3390,
      "occas": 3391,
      "vile": 3392,
      "streets": 3393,
      "path": 3394,
      "Serpentine": 3395,
      "stein": 3396,
      "guess": 3397,
      "faced": 3398,
      "ECT": 3399,
      "surprise": 3400,
      "crossing": 3401,
      "mbers": 3402,
      "remained": 3403,
      "Godfre": 3404,
      "facts": 3405,
      "dreams": 3406,
      "gyman": 3407,
      "Group": 3408,
      "Doctor": 3409,
      "velop": 3410,
      "Python": 3411,
      "situation": 3412,
      "Relation": 3413,
      "clergyman": 3414,
      "peculiarly": 3415,
      "perfectly": 3416,
      "fashion": 3417,
      "interpreted": 3418,
      "Godfrey": 3419,
      "*.": 3420,
      "Cy": 3421,
      "Can": 3422,
      "DP": 3423,
      "MM": 3424,
      "Red": 3425,
      "Wor": 3426,
      "bank": 3427,
      "date": 3428,
      "daugh": 3429,
      "gle": 3430,
      "hat": 3431,
      "lane": 3432,
      "ograph": 3433,
      "wished": 3434,
      "inv": 3435,
      "recogn": 3436,
      "enthus": 3437,
      "oug": 3438,
      "alarm": 3439,
      "rocket": 3440,
      "aging": 3441,
      "agged": 3442,
      "adversar": 3443,
      "unction": 3444,
      "immen": 3445,
      "dead": 3446,
      "delay": 3447,
      "uss": 3448,
      "safet": 3449,
      "short": 3450,
      "acked": 3451,
      "wheels": 3452,
      "please": 3453,
      "attach": 3454,
      "reath": 3455,
      "cla": 3456,
      "bore": 3457,
      "discus": 3458,
      "passive": 3459,
      "Eng": 3460,
      "requently": 3461,
      "stopped": 3462,
      "processing": 3463,
      "firm": 3464,
      "valid": 3465,
      "STAR": 3466,
      "respect": 3467,
      "Secret": 3468,
      "vision": 3469,
      "capable": 3470,
      "happiness": 3471,
      "Code": 3472,
      "wonderful": 3473,
      "Once": 3474,
      "surround": 3475,
      "neck": 3476,
      "remarkable": 3477,
      "drawn": 3478,
      "RED": 3479,
      "ACE": 3480,
      "sounded": 3481,
      "grim": 3482,
      "relation": 3483,
      "centre": 3484,
      "promised": 3485,
      "particularly": 3486,
      "communicate": 3487,
      "thorough": 3488,
      "iasm": 3489,
      "benevol": 3490,
      "clouds": 3491,
      "comfortable": 3492,
      "execution": 3493,
      "Negotiation": 3494,
      "Implementation": 3495,
      "fluence": 3496,
      "daughter": 3497,
      "enthusiasm": 3498,
      "immense": 3499,
      "safety": 3500,
      "+----": 3501,
      ".).": 3502,
      "28": 3503,
      "37": 3504,
      "38": 3505,
      "3D": 3506,
      "4c": 3507,
      "67": 3508,
      "83": 3509,
      ">;": 3510,
      "Bor": 3511,
      "Body": 3512,
      "CY": 3513,
      "Col": 3514,
      "CNN": 3515,
      "DER": 3516,
      "Eli": 3517,
      "Every": 3518,
      "Fe": 3519,
      "Fo": 3520,
      "GAN": 3521,
      "Herr": 3522,
      "JPC": 3523,
      "Last": 3524,
      "MA": 3525,
      "Miss": 3526,
      "Ob": 3527,
      "Pow": 3528,
      "Pers": 3529,
      "PRE": 3530,
      "Range": 3531,
      "RTT": 3532,
      "REC": 3533,
      "Sof": 3534,
      "SEC": 3535,
      "SION": 3536,
      "UTER": 3537,
      "_you": 3538,
      "bio": 3539,
      "bias": 3540,
      "cip": 3541,
      "d7": 3542,
      "dim": 3543,
      "danger": 3544,
      "ely": 3545,
      "hus": 3546,
      "ker": 3547,
      "kov": 3548,
      "loud": 3549,
      "mil": 3550,
      "ni": 3551,
      "pd": 3552,
      "pine": 3553,
      "parent": 3554,
      "ru": 3555,
      "race": 3556,
      "rule": 3557,
      "rules": 3558,
      "sal": 3559,
      "tal": 3560,
      "tware": 3561,
      "vulner": 3562,
      "wine": 3563,
      "warm": 3564,
      "yright": 3565,
      "—.": 3566,
      "intr": 3567,
      "inations": 3568,
      "ana": 3569,
      "anti": 3570,
      "anace": 3571,
      "............": 3572,
      "erved": 3573,
      "ites": 3574,
      "itally": 3575,
      "edence": 3576,
      "tore": 3577,
      "anda": 3578,
      "thous": 3579,
      "thick": 3580,
      "argu": 3581,
      "roof": 3582,
      "rock": 3583,
      "status": 3584,
      "meant": 3585,
      "acul": 3586,
      "actor": 3587,
      "beth": 3588,
      "become": 3589,
      "below": 3590,
      "etc": 3591,
      "tered": 3592,
      "cool": 3593,
      "force": 3594,
      "loso": 3595,
      "live": 3596,
      "urve": 3597,
      "conven": 3598,
      "moved": 3599,
      "apple": 3600,
      "exchanged": 3601,
      "expression": 3602,
      "thern": 3603,
      "pointed": 3604,
      "colour": 3605,
      "hop": 3606,
      "dated": 3607,
      "permission": 3608,
      "2015": 3609,
      "despair": 3610,
      "ects": 3611,
      "psy": 3612,
      "aud": 3613,
      "aufort": 3614,
      "avo": 3615,
      "aven": 3616,
      "additional": 3617,
      "itionally": 3618,
      "disap": 3619,
      "disposition": 3620,
      "glance": 3621,
      "earth": 3622,
      "longer": 3623,
      "scream": 3624,
      "Whitelisting": 3625,
      "flag": 3626,
      "offended": 3627,
      "Contin": 3628,
      "...........................": 3629,
      "courage": 3630,
      "hiloso": 3631,
      "TERNET": 3632,
      "151": 3633,
      "irements": 3634,
      "Comp": 3635,
      "driven": 3636,
      "everything": 3637,
      "stepped": 3638,
      "defines": 3639,
      "distinct": 3640,
      "INTERNET": 3641,
      "deck": 3642,
      "nearer": 3643,
      "compli": 3644,
      "visited": 3645,
      ".............................": 3646,
      "deduce": 3647,
      "......................................................": 3648,
      "fortune": 3649,
      "Dracul": 3650,
      "Requirements": 3651,
      "happy": 3652,
      "Beaufort": 3653,
      "buf": 3654,
      "falling": 3655,
      "directly": 3656,
      "supported": 3657,
      "changes": 3658,
      "supper": 3659,
      "heaven": 3660,
      "COMP": 3661,
      "CODIN": 3662,
      "octet": 3663,
      "programs": 3664,
      "protected": 3665,
      "Types": 3666,
      "roadway": 3667,
      "Headers": 3668,
      "established": 3669,
      "variant": 3670,
      "crossed": 3671,
      "sweet": 3672,
      "uint16": 3673,
      "considerable": 3674,
      "countenance": 3675,
      "URI": 3676,
      "URITY": 3677,
      "Sometimes": 3678,
      "Parameters": 3679,
      "judge": 3680,
      "welcome": 3681,
      "advant": 3682,
      "ARPA": 3683,
      "SHALL": 3684,
      "VISION": 3685,
      "carrying": 3686,
      "volume": 3687,
      "December": 3688,
      "benef": 3689,
      "Expiration": 3690,
      "optionally": 3691,
      "Corio": 3692,
      "Docu": 3693,
      "golden": 3694,
      "Shared": 3695,
      "acquainted": 3696,
      "determines": 3697,
      "Fragment": 3698,
      "BERSEC": 3699,
      "Method": 3700,
      "quarter": 3701,
      "Gateway": 3702,
      "prepared": 3703,
      "TechNet": 3704,
      "Precedence": 3705,
      "blood": 3706,
      "shelves": 3707,
      "sailors": 3708,
      "practice": 3709,
      "deliver": 3710,
      "glimpse": 3711,
      "Local": 3712,
      "anxiously": 3713,
      "problem": 3714,
      "shouted": 3715,
      "Error": 3716,
      "_I_": 3717,
      "zabeth": 3718,
      "assigned": 3719,
      "Considerations": 3720,
      "Bukov": 3721,
      "Copyright": 3722,
      "scarce": 3723,
      "solutely": 3724,
      "opportunity": 3725,
      "paganda": 3726,
      "u201": 3727,
      "Restriction": 3728,
      "filled": 3729,
      "encoded": 3730,
      "CYBERSEC": 3731,
      "Color": 3732,
      "Elizabeth": 3733,
      "JPCERT": 3734,
      "Software": 3735,
      "ciphered": 3736,
      "parents": 3737,
      "anacea": 3738,
      "thousand": 3739,
      "Dracula": 3740,
      "COMPUTER": 3741,
      "CODING": 3742,
      "Bukovina": 3743,
      "CYBERSECURITY": 3744,
      "!’": 3745,
      "AES": 3746,
      "Bey": 3747,
      "DU": 3748,
      "EG": 3749,
      "EBO": 3750,
      "Jan": 3751,
      "JECT": 3752,
      "MR": 3753,
      "Our": 3754,
      "PK": 3755,
      "TEN": 3756,
      "VII": 3757,
      "WA": 3758,
      "bour": 3759,
      "cred": 3760,
      "dut": 3761,
      "div": 3762,
      "dread": 3763,
      "ease": 3764,
      "fle": 3765,
      "fted": 3766,
      "gar": 3767,
      "gers": 3768,
      "gmentation": 3769,
      "kins": 3770,
      "mapp": 3771,
      "maps": 3772,
      "narr": 3773,
      "pain": 3774,
      "pity": 3775,
      "rid": 3776,
      "rabbit": 3777,
      "rug": 3778,
      "sand": 3779,
      "sad": 3780,
      "scan": 3781,
      "tar": 3782,
      "tall": 3783,
      "uff": 3784,
      "wit": 3785,
      "wife": 3786,
      "year": 3787,
      "ining": 3788,
      "inste": 3789,
      "influence": 3790,
      "eral": 3791,
      "ership": 3792,
      "real": 3793,
      "stant": 3794,
      "accom": 3795,
      "acted": 3796,
      "coat": 3797,
      "advent": 3798,
      "lov": 3799,
      "lie": 3800,
      "alled": 3801,
      "default": 3802,
      "ift": 3803,
      "constr": 3804,
      "keen": 3805,
      "extr": 3806,
      "experi": 3807,
      "track": 3808,
      "police": 3809,
      "neither": 3810,
      "weather": 3811,
      "ulated": 3812,
      "fold": 3813,
      "spread": 3814,
      "aks": 3815,
      "eval": 3816,
      "Proxy": 3817,
      "paral": 3818,
      "boy": 3819,
      "aved": 3820,
      "discovery": 3821,
      "elderly": 3822,
      "doors": 3823,
      "specific": 3824,
      "viol": 3825,
      "isely": 3826,
      "sche": 3827,
      "offic": 3828,
      "reflection": 3829,
      "medi": 3830,
      "prior": 3831,
      "lessons": 3832,
      "broke": 3833,
      "chambers": 3834,
      "incident": 3835,
      "dropped": 3836,
      "remembered": 3837,
      "PROJECT": 3838,
      "names": 3839,
      "Digital": 3840,
      "BERG": 3841,
      "GUTEN": 3842,
      "conceal": 3843,
      "Quite": 3844,
      "laughing": 3845,
      "physical": 3846,
      "mixed": 3847,
      "endeavour": 3848,
      "neighbour": 3849,
      "START": 3850,
      "Beyond": 3851,
      "EBOOK": 3852,
      "instead": 3853,
      "GUTENBERG": 3854,
      "Back": 3855,
      "Che": 3856,
      "Cas": 3857,
      "Even": 3858,
      "Fl": 3859,
      "GE": 3860,
      "Joh": 3861,
      "OLO": 3862,
      "SC": 3863,
      "Sure": 3864,
      "Script": 3865,
      "Tw": 3866,
      "Tur": 3867,
      "YOLO": 3868,
      "_key": 3869,
      "bun": 3870,
      "breath": 3871,
      "cial": 3872,
      "fif": 3873,
      "har": 3874,
      "nur": 3875,
      "narrow": 3876,
      "rad": 3877,
      "sli": 3878,
      "ux": 3879,
      "uly": 3880,
      "vs": 3881,
      "wid": 3882,
      "wall": 3883,
      "zz": 3884,
      "repe": 3885,
      "replaced": 3886,
      "recovered": 3887,
      "metr": 3888,
      "terday": 3889,
      "agon": 3890,
      "ague": 3891,
      "rix": 3892,
      "ceas": 3893,
      "lives": 3894,
      "limb": 3895,
      "social": 3896,
      "impatient": 3897,
      "ifi": 3898,
      "proceed": 3899,
      "consu": 3900,
      "mode": 3901,
      "modes": 3902,
      "mental": 3903,
      "quer": 3904,
      "mantic": 3905,
      "illustr": 3906,
      "ardon": 3907,
      "coloured": 3908,
      "fee": 3909,
      "noon": 3910,
      "hoarse": 3911,
      "grace": 3912,
      "umbl": 3913,
      "crime": 3914,
      "eption": 3915,
      "blow": 3916,
      "disappeared": 3917,
      "print": 3918,
      "Mrs": 3919,
      "earnest": 3920,
      "broug": 3921,
      "apparently": 3922,
      "science": 3923,
      "Which": 3924,
      "fined": 3925,
      "patience": 3926,
      "refused": 3927,
      "addressing": 3928,
      "points": 3929,
      "Applications": 3930,
      "opening": 3931,
      "clothes": 3932,
      "distribut": 3933,
      "logs": 3934,
      "responses": 3935,
      "visible": 3936,
      "wrong": 3937,
      "sooner": 3938,
      "walking": 3939,
      "interesting": 3940,
      "operations": 3941,
      "lately": 3942,
      "continue": 3943,
      "careless": 3944,
      "errors": 3945,
      "landau": 3946,
      "holding": 3947,
      "midnight": 3948,
      "mbly": 3949,
      "rench": 3950,
      "strongly": 3951,
      "DED": 3952,
      "exploit": 3953,
      "ICMP": 3954,
      "training": 3955,
      "fetch": 3956,
      "gaze": 3957,
      "Pract": 3958,
      "resolved": 3959,
      "cognitive": 3960,
      "quietly": 3961,
      "excited": 3962,
      "exactly": 3963,
      "profession": 3964,
      "arrived": 3965,
      "entirely": 3966,
      "API": 3967,
      "whisper": 3968,
      "methods": 3969,
      "Presently": 3970,
      "immediately": 3971,
      "concepts": 3972,
      "princi": 3973,
      "concerning": 3974,
      "pursued": 3975,
      "Temple": 3976,
      "straight": 3977,
      "gleam": 3978,
      "MAY": 3979,
      "niques": 3980,
      "audit": 3981,
      "Check": 3982,
      "John": 3983,
      "metrics": 3984,
      "brougham": 3985,
      ")\",": 3986,
      "34": 3987,
      "74": 3988,
      "86": 3989,
      "?—": 3990,
      "AI": 3991,
      "Ag": 3992,
      "Bit": 3993,
      "Bistr": 3994,
      "Cod": 3995,
      "Chur": 3996,
      "CTION": 3997,
      "CONT": 3998,
      "DN": 3999,
      "Det": 4000,
      "Dep": 4001,
      "DSS": 4002,
      "EW": 4003,
      "Each": 4004,
      "GP": 4005,
      "HY": 4006,
      "Ind": 4007,
      "IRED": 4008,
      "Long": 4009,
      "OS": 4010,
      "Ple": 4011,
      "SM": 4012,
      "Soc": 4013,
      "SSA": 4014,
      "Table": 4015,
      "Using": 4016,
      "Vi": 4017,
      "Was": 4018,
      "[[": 4019,
      "bly": 4020,
      "bid": 4021,
      "bind": 4022,
      "bought": 4023,
      "bond": 4024,
      "bones": 4025,
      "d6": 4026,
      "f2": 4027,
      "f4": 4028,
      "fit": 4029,
      "fond": 4030,
      "favour": 4031,
      "gen": 4032,
      "gest": 4033,
      "ik": 4034,
      "iety": 4035,
      "kid": 4036,
      "lan": 4037,
      "mere": 4038,
      "mpt": 4039,
      "mble": 4040,
      "micro": 4041,
      "nine": 4042,
      "national": 4043,
      "phas": 4044,
      "phy": 4045,
      "push": 4046,
      "pushed": 4047,
      "range": 4048,
      "rub": 4049,
      "random": 4050,
      "scho": 4051,
      "sources": 4052,
      "tam": 4053,
      "udes": 4054,
      "win": 4055,
      "wand": 4056,
      "winter": 4057,
      "wond": 4058,
      "xx": 4059,
      "xim": 4060,
      "xies": 4061,
      "zes": 4062,
      "iny": 4063,
      "anization": 4064,
      "theor": 4065,
      "ermine": 4066,
      "ony": 4067,
      "item": 4068,
      "ouble": 4069,
      "tories": 4070,
      "ism": 4071,
      "orange": 4072,
      "ingu": 4073,
      "thin": 4074,
      "thirst": 4075,
      "altogether": 4076,
      "icle": 4077,
      "ically": 4078,
      "seized": 4079,
      "leep": 4080,
      "leather": 4081,
      "leaving": 4082,
      "entation": 4083,
      "entry": 4084,
      "acing": 4085,
      "vern": 4086,
      "verification": 4087,
      "rible": 4088,
      "ghost": 4089,
      "aded": 4090,
      "loc": 4091,
      "living": 4092,
      "chant": 4093,
      "solit": 4094,
      "union": 4095,
      "imper": 4096,
      "apps": 4097,
      "exer": 4098,
      "therto": 4099,
      "mance": 4100,
      "trouble": 4101,
      "poison": 4102,
      "ardour": 4103,
      "indication": 4104,
      "interpret": 4105,
      "nore": 4106,
      "hook": 4107,
      "hoping": 4108,
      "groups": 4109,
      "someone": 4110,
      "somehow": 4111,
      "teen": 4112,
      "teles": 4113,
      "teeth": 4114,
      "govern": 4115,
      "plun": 4116,
      "places": 4117,
      "akin": 4118,
      "stract": 4119,
      "series": 4120,
      "event": 4121,
      "ively": 4122,
      "100": 4123,
      "101": 4124,
      "146": 4125,
      "148": 4126,
      "awn": 4127,
      "awake": 4128,
      "await": 4129,
      "rambl": 4130,
      "anywhere": 4131,
      "boot": 4132,
      "hastily": 4133,
      "actually": 4134,
      "ivid": 4135,
      "ucted": 4136,
      "Transp": 4137,
      "obli": 4138,
      "ptions": 4139,
      "brated": 4140,
      "greater": 4141,
      "undertaking": 4142,
      "identify": 4143,
      "describe": 4144,
      "Author": 4145,
      "streng": 4146,
      ".........................": 4147,
      "court": 4148,
      "hitherto": 4149,
      "thoughts": 4150,
      "stop": 4151,
      "says": 4152,
      "primary": 4153,
      "privile": 4154,
      "152": 4155,
      "Computer": 4156,
      "mighty": 4157,
      "determine": 4158,
      "presently": 4159,
      "eks": 4160,
      "Through": 4161,
      "bash": 4162,
      "receive": 4163,
      "drink": 4164,
      "Transyl": 4165,
      "Format": 4166,
      "write": 4167,
      "wrapped": 4168,
      "differences": 4169,
      "archit": 4170,
      ".......................................................": 4171,
      "regions": 4172,
      "regular": 4173,
      "destro": 4174,
      "ROL": 4175,
      "sorts": 4176,
      "reliability": 4177,
      "Direc": 4178,
      "minute": 4179,
      "encrypted": 4180,
      "Only": 4181,
      "amongst": 4182,
      "maxim": 4183,
      "ptography": 4184,
      "swam": 4185,
      "examined": 4186,
      "operating": 4187,
      "indicating": 4188,
      "REQU": 4189,
      "castle": 4190,
      "itoring": 4191,
      "negotiate": 4192,
      "negotiated": 4193,
      "sounds": 4194,
      "spoken": 4195,
      "circle": 4196,
      "virtual": 4197,
      "writing": 4198,
      "Differences": 4199,
      "implemented": 4200,
      "implementations": 4201,
      "companions": 4202,
      "successful": 4203,
      "shook": 4204,
      "records": 4205,
      "technet": 4206,
      "coachman": 4207,
      "initi": 4208,
      "initiate": 4209,
      ".........................................................": 4210,
      "+---------------------+": 4211,
      "Modified": 4212,
      "privacy": 4213,
      "sharply": 4214,
      "Specification": 4215,
      "suites": 4216,
      "Updates": 4217,
      "burgh": 4218,
      "North": 4219,
      "passenger": 4220,
      "caten": 4221,
      "mountains": 4222,
      "declare": 4223,
      "declared": 4224,
      "Multiple": 4225,
      "rapid": 4226,
      "enjoy": 4227,
      "enjoyed": 4228,
      "Suites": 4229,
      "breakfast": 4230,
      "candle": 4231,
      "simply": 4232,
      "aspx": 4233,
      "limited": 4234,
      "Calc": 4235,
      "Alerts": 4236,
      "Variant": 4237,
      "Filter": 4238,
      "escape": 4239,
      "familiar": 4240,
      "tongue": 4241,
      "existence": 4242,
      "combination": 4243,
      "peasant": 4244,
      "CS1": 4245,
      "Install": 4246,
      "languages": 4247,
      "vania": 4248,
      "palm": 4249,
      "victim": 4250,
      "forgotten": 4251,
      "gravely": 4252,
      "dynamic": 4253,
      "husband": 4254,
      "arguments": 4255,
      "disappoint": 4256,
      "hilosophy": 4257,
      "January": 4258,
      "PKCS1": 4259,
      "target": 4260,
      "Bistritz": 4261,
      "Church": 4262,
      "DNS": 4263,
      "Please": 4264,
      "school": 4265,
      "strength": 4266,
      "Transylvania": 4267,
      "REQUIRED": 4268,
      "Bl": 4269,
      "Bes": 4270,
      "CHO": 4271,
      "DF": 4272,
      "ED": 4273,
      "Fire": 4274,
      "FTP": 4275,
      "GY": 4276,
      "Ho": 4277,
      "Har": 4278,
      "Man": 4279,
      "Mag": 4280,
      "Mot": 4281,
      "Mur": 4282,
      "Media": 4283,
      "Never": 4284,
      "OMM": 4285,
      "Per": 4286,
      "RAN": 4287,
      "Tel": 4288,
      "VM": 4289,
      "Vec": 4290,
      "VIII": 4291,
      "Wil": 4292,
      "YCHO": 4293,
      "bat": 4294,
      "bing": 4295,
      "bust": 4296,
      "bition": 4297,
      "burn": 4298,
      "dwell": 4299,
      "fare": 4300,
      "frequently": 4301,
      "ires": 4302,
      "kes": 4303,
      "mut": 4304,
      "mach": 4305,
      "nchron": 4306,
      "pink": 4307,
      "tit": 4308,
      "tro": 4309,
      "tail": 4310,
      "wro": 4311,
      "inside": 4312,
      "erarch": 4313,
      "rejo": 4314,
      "itary": 4315,
      "tok": 4316,
      "ese": 4317,
      "andal": 4318,
      "asion": 4319,
      "asse": 4320,
      "aloud": 4321,
      "icates": 4322,
      "sey": 4323,
      "stain": 4324,
      "stretched": 4325,
      "copy": 4326,
      "adjust": 4327,
      "lover": 4328,
      "ambition": 4329,
      "unication": 4330,
      "dele": 4331,
      "device": 4332,
      "abilities": 4333,
      "ifier": 4334,
      "ape": 4335,
      "expres": 4336,
      "quare": 4337,
      "dom": 4338,
      "doz": 4339,
      "ainly": 4340,
      "ilation": 4341,
      "license": 4342,
      "peer": 4343,
      "noise": 4344,
      "hole": 4345,
      "sprang": 4346,
      "plans": 4347,
      "stru": 4348,
      "affor": 4349,
      "affect": 4350,
      "auto": 4351,
      "aws": 4352,
      "intention": 4353,
      "achi": 4354,
      "handsome": 4355,
      "adding": 4356,
      "miss": 4357,
      "shoulders": 4358,
      "scandal": 4359,
      "begins": 4360,
      "Exam": 4361,
      "reflec": 4362,
      "headers": 4363,
      "hierarch": 4364,
      "friendship": 4365,
      "404": 4366,
      "rights": 4367,
      "drive": 4368,
      "steel": 4369,
      "guards": 4370,
      "firelight": 4371,
      "versity": 4372,
      "silver": 4373,
      "falls": 4374,
      "crown": 4375,
      "indicated": 4376,
      "structured": 4377,
      "confidence": 4378,
      "establish": 4379,
      "LOGY": 4380,
      "reasoning": 4381,
      "PSYCHO": 4382,
      "exploitation": 4383,
      "Edge": 4384,
      "endpoints": 4385,
      "symmetric": 4386,
      "initial": 4387,
      "judgment": 4388,
      "returning": 4389,
      "explained": 4390,
      "mistress": 4391,
      "Communication": 4392,
      "optional": 4393,
      "measures": 4394,
      "cabinet": 4395,
      "employed": 4396,
      "separate": 4397,
      "attracted": 4398,
      "cultural": 4399,
      "satisfi": 4400,
      "suspic": 4401,
      "probably": 4402,
      "knock": 4403,
      "Engineering": 4404,
      "advantage": 4405,
      "accompl": 4406,
      "paralle": 4407,
      "Besides": 4408,
      "Motivation": 4409,
      "Telnet": 4410,
      "wrote": 4411,
      "expressions": 4412,
      "PSYCHOLOGY": 4413,
      ");": 4414,
      "::": 4415,
      "Bec": 4416,
      "Des": 4417,
      "Did": 4418,
      "File": 4419,
      "French": 4420,
      "Gu": 4421,
      "MD": 4422,
      "MIT": 4423,
      "New": 4424,
      "PE": 4425,
      "RT": 4426,
      "Sud": 4427,
      "Scand": 4428,
      "Two": 4429,
      "V2": 4430,
      "Would": 4431,
      "bac": 4432,
      "cident": 4433,
      "fills": 4434,
      "gage": 4435,
      "gery": 4436,
      "hing": 4437,
      "hang": 4438,
      "ips": 4439,
      "lug": 4440,
      "pper": 4441,
      "pred": 4442,
      "press": 4443,
      "rab": 4444,
      "ton": 4445,
      "tled": 4446,
      "vage": 4447,
      "wishes": 4448,
      "yle": 4449,
      "inches": 4450,
      "eration": 4451,
      "recomm": 4452,
      "reput": 4453,
      "ator": 4454,
      "toss": 4455,
      "asha": 4456,
      "seld": 4457,
      "leak": 4458,
      "lebrated": 4459,
      "etry": 4460,
      "whale": 4461,
      "celebrated": 4462,
      "ades": 4463,
      "lose": 4464,
      "impression": 4465,
      "develop": 4466,
      "urally": 4467,
      "abs": 4468,
      "prospect": 4469,
      "conve": 4470,
      "concl": 4471,
      "shed": 4472,
      "savage": 4473,
      "trous": 4474,
      "posure": 4475,
      "neat": 4476,
      "weight": 4477,
      "iled": 4478,
      "shri": 4479,
      "peace": 4480,
      "feature": 4481,
      "agement": 4482,
      "tire": 4483,
      "homo": 4484,
      "assess": 4485,
      "ists": 4486,
      "pless": 4487,
      "serious": 4488,
      "affair": 4489,
      "formity": 4490,
      "anyone": 4491,
      "forehead": 4492,
      "iving": 4493,
      "command": 4494,
      "discover": 4495,
      "extre": 4496,
      "lighting": 4497,
      "pattern": 4498,
      "raised": 4499,
      "afterwards": 4500,
      "afternoon": 4501,
      "heads": 4502,
      "news": 4503,
      "See": 4504,
      "ventions": 4505,
      "positive": 4506,
      "drun": 4507,
      "voices": 4508,
      "ounter": 4509,
      "Secure": 4510,
      "company": 4511,
      "curve": 4512,
      "speech": 4513,
      "possibly": 4514,
      "levels": 4515,
      "Any": 4516,
      "denly": 4517,
      "chain": 4518,
      "chamber": 4519,
      "highly": 4520,
      "hurt": 4521,
      "conduct": 4522,
      "global": 4523,
      "needed": 4524,
      "lovely": 4525,
      "busy": 4526,
      "organization": 4527,
      "helpless": 4528,
      "gives": 4529,
      "protect": 4530,
      "confess": 4531,
      "listened": 4532,
      "slept": 4533,
      "rolled": 4534,
      "ribution": 4535,
      "reasoner": 4536,
      "enumeration": 4537,
      "paid": 4538,
      "playing": 4539,
      "creates": 4540,
      "completely": 4541,
      "Bohemian": 4542,
      "Module": 4543,
      "delighted": 4544,
      "containing": 4545,
      "moust": 4546,
      "beautifully": 4547,
      "determined": 4548,
      "touch": 4549,
      "Precisely": 4550,
      "Priv": 4551,
      "naturally": 4552,
      "briefly": 4553,
      "solemnly": 4554,
      "transferred": 4555,
      "furnished": 4556,
      "ussian": 4557,
      "attachment": 4558,
      "claim": 4559,
      "thoroughly": 4560,
      "benevolent": 4561,
      "nurse": 4562,
      "repeated": 4563,
      "ifiers": 4564,
      "Suddenly": 4565,
      "luggage": 4566,
      "tossed": 4567,
      "ashamed": 4568,
      "seldom": 4569,
      "trousers": 4570,
      "affairs": 4571,
      "\".": 4572,
      "(“": 4573,
      "+--------": 4574,
      ",)": 4575,
      "01": 4576,
      "03": 4577,
      "06": 4578,
      "120": 4579,
      "48": 4580,
      "49": 4581,
      "62": 4582,
      "63": 4583,
      "73": 4584,
      "75": 4585,
      "76": 4586,
      "87": 4587,
      "</": 4588,
      "Anal": 4589,
      "ATT": 4590,
      "Aven": 4591,
      "Agri": 4592,
      "Cl": 4593,
      "Clo": 4594,
      "Cau": 4595,
      "Cler": 4596,
      "CID": 4597,
      "Den": 4598,
      "Date": 4599,
      "Down": 4600,
      "Del": 4601,
      "Duc": 4602,
      "DLL": 4603,
      "DARPA": 4604,
      "EK": 4605,
      "Function": 4606,
      "FACE": 4607,
      "Gen": 4608,
      "GRA": 4609,
      "HK": 4610,
      "HT": 4611,
      "HER": 4612,
      "Hash": 4613,
      "Having": 4614,
      "July": 4615,
      "JEK": 4616,
      "LA": 4617,
      "Live": 4618,
      "LNI": 4619,
      "Mis": 4620,
      "Mandatory": 4621,
      "Num": 4622,
      "Pet": 4623,
      "Philosophy": 4624,
      "RP": 4625,
      "RY": 4626,
      "Sat": 4627,
      "Set": 4628,
      "Sav": 4629,
      "Scope": 4630,
      "Slov": 4631,
      "SRP": 4632,
      "T12": 4633,
      "YLL": 4634,
      "_5": 4635,
      "_is": 4636,
      "_that": 4637,
      "_To": 4638,
      "_shared": 4639,
      "_Mem": 4640,
      "aa": 4641,
      "ah": 4642,
      "awhile": 4643,
      "bent": 4644,
      "bats": 4645,
      "cf": 4646,
      "cam": 4647,
      "card": 4648,
      "dare": 4649,
      "dash": 4650,
      "eign": 4651,
      "east": 4652,
      "fc": 4653,
      "fly": 4654,
      "fate": 4655,
      "farm": 4656,
      "faint": 4657,
      "gal": 4658,
      "ghed": 4659,
      "groom": 4660,
      "gree": 4661,
      "hill": 4662,
      "hate": 4663,
      "ie": 4664,
      "ifor": 4665,
      "iam": 4666,
      "jagged": 4667,
      "kill": 4668,
      "lor": 4669,
      "lau": 4670,
      "mice": 4671,
      "mured": 4672,
      "makes": 4673,
      "nod": 4674,
      "nia": 4675,
      "native": 4676,
      "othing": 4677,
      "pix": 4678,
      "pale": 4679,
      "paced": 4680,
      "pardon": 4681,
      "rup": 4682,
      "rous": 4683,
      "s_": 4684,
      "sick": 4685,
      "tender": 4686,
      "vast": 4687,
      "vanced": 4688,
      "wa": 4689,
      "ws": 4690,
      "—’": 4691,
      "—“": 4692,
      "hess": 4693,
      "inf": 4694,
      "invol": 4695,
      "anchor": 4696,
      "erce": 4697,
      "reated": 4698,
      "repose": 4699,
      "review": 4700,
      "reference": 4701,
      "envelo": 4702,
      "edge": 4703,
      "tored": 4704,
      "asleep": 4705,
      "thim": 4706,
      "thres": 4707,
      "alas": 4708,
      "altern": 4709,
      "iction": 4710,
      "romantic": 4711,
      "std": 4712,
      "stam": 4713,
      "static": 4714,
      "ental": 4715,
      "meal": 4716,
      "melan": 4717,
      "mews": 4718,
      "accompan": 4719,
      "beat": 4720,
      "terly": 4721,
      "termin": 4722,
      "verty": 4723,
      "verbal": 4724,
      "vereign": 4725,
      "--+": 4726,
      "--“": 4727,
      "agents": 4728,
      "forth": 4729,
      "formance": 4730,
      "river": 4731,
      "ribu": 4732,
      "cean": 4733,
      "ceiling": 4734,
      "celest": 4735,
      "admin": 4736,
      "loa": 4737,
      "lies": 4738,
      "solic": 4739,
      "sovereign": 4740,
      "mystery": 4741,
      "unspecified": 4742,
      "unsigned": 4743,
      "image": 4744,
      "impossible": 4745,
      "improved": 4746,
      "improve": 4747,
      "degree": 4748,
      "urance": 4749,
      "consec": 4750,
      "consent": 4751,
      "consult": 4752,
      "moder": 4753,
      "notation": 4754,
      "suite": 4755,
      "reserved": 4756,
      "trict": 4757,
      "pole": 4758,
      "polic": 4759,
      "poets": 4760,
      "poverty": 4761,
      "wealth": 4762,
      "emot": 4763,
      "embed": 4764,
      "embark": 4765,
      "estim": 4766,
      "ille": 4767,
      "ilst": 4768,
      "endless": 4769,
      "compu": 4770,
      "compatibility": 4771,
      "composed": 4772,
      "individ": 4773,
      "ulty": 4774,
      "frost": 4775,
      "omitted": 4776,
      "nology": 4777,
      "persu": 4778,
      "pertext": 4779,
      "performance": 4780,
      "spare": 4781,
      "spring": 4782,
      "grass": 4783,
      "gratitude": 4784,
      "assist": 4785,
      "somewhere": 4786,
      "somebody": 4787,
      "istent": 4788,
      "fierce": 4789,
      "derived": 4790,
      "ppa": 4791,
      "reduce": 4792,
      "Italy": 4793,
      "desp": 4794,
      "ptic": 4795,
      "seriously": 4796,
      "ideo": 4797,
      "102": 4798,
      "106": 4799,
      "ignor": 4800,
      "aston": 4801,
      "Constr": 4802,
      "forest": 4803,
      "board": 4804,
      "haste": 4805,
      "context": 4806,
      "ival": 4807,
      "seek": 4808,
      "Trust": 4809,
      "commence": 4810,
      "encies": 4811,
      "shaking": 4812,
      "passes": 4813,
      "keying": 4814,
      "obsoletes": 4815,
      "ipedia": 4816,
      "nesses": 4817,
      "-------->": 4818,
      "locked": 4819,
      "134": 4820,
      "137": 4821,
      "138": 4822,
      "asking": 4823,
      "White": 4824,
      "finitions": 4825,
      "calm": 4826,
      "describes": 4827,
      "Authentic": 4828,
      "Internetwork": 4829,
      "pre_shared": 4830,
      "patch": 4831,
      "124": 4832,
      "128": 4833,
      "addressed": 4834,
      "mative": 4835,
      "attacks": 4836,
      "attacker": 4837,
      "attackers": 4838,
      "media": 4839,
      "didn": 4840,
      "pull": 4841,
      "puzz": 4842,
      "Advanced": 4843,
      "signals": 4844,
      "express": 4845,
      "Applocker": 4846,
      "Comments": 4847,
      "create": 4848,
      "closing": 4849,
      "presented": 4850,
      "presentation": 4851,
      "Thus": 4852,
      "Threat": 4853,
      "distant": 4854,
      "distaste": 4855,
      "distingu": 4856,
      "hearing": 4857,
      "hearth": 4858,
      "ailed": 4859,
      "drug": 4860,
      "Soon": 4861,
      "INCID": 4862,
      "crying": 4863,
      "ENC": 4864,
      "END": 4865,
      "ENDED": 4866,
      "visions": 4867,
      "changel": 4868,
      "curt": 4869,
      "finding": 4870,
      "allowing": 4871,
      "ulties": 4872,
      "achelor": 4873,
      "Ann": 4874,
      "Mabel": 4875,
      "destinations": 4876,
      "varied": 4877,
      "000": 4878,
      "includes": 4879,
      "happens": 4880,
      "sends": 4881,
      "Datum": 4882,
      "RODU": 4883,
      "Retry": 4884,
      "256": 4885,
      "relief": 4886,
      "directory": 4887,
      "maj": 4888,
      "supposed": 4889,
      "fears": 4890,
      "plaintext": 4891,
      "Major": 4892,
      "rank": 4893,
      "heavily": 4894,
      "elev": 4895,
      "runtime": 4896,
      "operate": 4897,
      "choly": 4898,
      "indicate": 4899,
      "pairs": 4900,
      "ACUL": 4901,
      "joy": 4902,
      "transmitting": 4903,
      "pedant": 4904,
      ".....................": 4905,
      "CertificateRequest": 4906,
      "CertificateVerify": 4907,
      "hung": 4908,
      "circu": 4909,
      "designation": 4910,
      "Uni": 4911,
      "trusted": 4912,
      "dependent": 4913,
      "PROGRA": 4914,
      "beauty": 4915,
      "communicated": 4916,
      "trembling": 4917,
      "imagination": 4918,
      "grey": 4919,
      "suffer": 4920,
      "Definitions": 4921,
      "---+---+": 4922,
      "merchant": 4923,
      "meaning": 4924,
      "transparent": 4925,
      "technology": 4926,
      "DRACUL": 4927,
      "bestow": 4928,
      "Fields": 4929,
      "observing": 4930,
      "About": 4931,
      "Archangel": 4932,
      "picture": 4933,
      "OPTION": 4934,
      "selected": 4935,
      "Pray": 4936,
      "fingers": 4937,
      "Goals": 4938,
      "Password": 4939,
      "included": 4940,
      "birth": 4941,
      "sleepy": 4942,
      "eager": 4943,
      "alton": 4944,
      "altar": 4945,
      "failure": 4946,
      "beginning": 4947,
      "mbled": 4948,
      "animals": 4949,
      "travel": 4950,
      "INTEG": 4951,
      "INTRODU": 4952,
      "instantly": 4953,
      "T116": 4954,
      "-----+-----+-----+-----+": 4955,
      "Fragmentation": 4956,
      "murmured": 4957,
      "quarters": 4958,
      "Gateways": 4959,
      "excite": 4960,
      "iii": 4961,
      "mountain": 4962,
      "Values": 4963,
      "warmed": 4964,
      "CASE": 4965,
      "EMET": 4966,
      "sorrow": 4967,
      "wn2": 4968,
      "referred": 4969,
      "async": 4970,
      "admiration": 4971,
      "superst": 4972,
      "passionate": 4973,
      "+---------------------------+": 4974,
      "+-------------------------------+": 4975,
      "uniquely": 4976,
      "Level": 4977,
      "magaz": 4978,
      "AEAD": 4979,
      "Califor": 4980,
      "William": 4981,
      "regarding": 4982,
      "reassembly": 4983,
      "picturesque": 4984,
      "Monica": 4985,
      "digitally": 4986,
      "consists": 4987,
      "natural": 4988,
      "Defense": 4989,
      "Struct": 4990,
      "labor": 4991,
      "chorus": 4992,
      "mysteries": 4993,
      "mysterious": 4994,
      "Preventing": 4995,
      "increased": 4996,
      "independently": 4997,
      "numeric": 4998,
      "shrink": 4999,
      "couch": 5000,
      "splend": 5001,
      "Additionally": 5002,
      "Response": 5003,
      "switched": 5004,
      "EncryptedExtensions": 5005,
      "Warning": 5006,
      "banana": 5007,
      "flick": 5008,
      "incorpor": 5009,
      "leaned": 5010,
      "lliptic": 5011,
      "+------+": 5012,
      "Borgo": 5013,
      "Power": 5014,
      "PREFACE": 5015,
      "RECOMM": 5016,
      "_you_": 5017,
      "pdm": 5018,
      "...............": 5019,
      "avoid": 5020,
      "Document": 5021,
      "delivered": 5022,
      "scarcely": 5023,
      "scanning": 5024,
      "folded": 5025,
      "scheme": 5026,
      "Backward": 5027,
      "Detection": 5028,
      "Indicates": 5029,
      "Social": 5030,
      "ikipedia": 5031,
      "items": 5032,
      "Transport": 5033,
      "privilege": 5034,
      "architect": 5035,
      "destroyed": 5036,
      "disappointment": 5037,
      "Harry": 5038,
      "Murray": 5039,
      "guardsmen": 5040,
      "recommended": 5041,
      "+---------------+": 5042,
      "Avenue": 5043,
      "Agrippa": 5044,
      "Caucus": 5045,
      "Clerval": 5046,
      "Duchess": 5047,
      "Genev": 5048,
      "JEKYLL": 5049,
      "Numbers": 5050,
      "Saville": 5051,
      "_is_": 5052,
      "laughed": 5053,
      "thimble": 5054,
      "melancholy": 5055,
      "accompanied": 5056,
      "ributors": 5057,
      "celestial": 5058,
      "administr": 5059,
      "computers": 5060,
      "pre_shared_key": 5061,
      "INCIDENT": 5062,
      "PROGRAM": 5063,
      "DRACULA": 5064,
      "INTRODUCTION": 5065,
      "California": 5066,
      "RECOMMENDED": 5067,
      "53": 5068,
      "CP": 5069,
      "Cred": 5070,
      "Case": 5071,
      "Curve": 5072,
      "DO": 5073,
      "Five": 5074,
      "First": 5075,
      "Hold": 5076,
      "HMAC": 5077,
      "IP": 5078,
      "LM": 5079,
      "Line": 5080,
      "Luc": 5081,
      "Mac": 5082,
      "Mil": 5083,
      "NF": 5084,
      "None": 5085,
      "Pit": 5086,
      "RI": 5087,
      "Sig": 5088,
      "Size": 5089,
      "Tom": 5090,
      "Tick": 5091,
      "Vir": 5092,
      "XI": 5093,
      "XII": 5094,
      "bul": 5095,
      "baff": 5096,
      "civ": 5097,
      "drow": 5098,
      "dull": 5099,
      "fed": 5100,
      "fere": 5101,
      "flight": 5102,
      "ief": 5103,
      "ka": 5104,
      "kit": 5105,
      "knot": 5106,
      "mmetric": 5107,
      "mandatory": 5108,
      "na": 5109,
      "pace": 5110,
      "rust": 5111,
      "rans": 5112,
      "raw": 5113,
      "rise": 5114,
      "sco": 5115,
      "sne": 5116,
      "sky": 5117,
      "tend": 5118,
      "treat": 5119,
      "wet": 5120,
      "ye": 5121,
      "health": 5122,
      "inction": 5123,
      "onents": 5124,
      "remove": 5125,
      "env": 5126,
      "ensure": 5127,
      "espec": 5128,
      "orm": 5129,
      "ley": 5130,
      "stif": 5131,
      "standards": 5132,
      "stuff": 5133,
      "habits": 5134,
      "term": 5135,
      "rieval": 5136,
      "utive": 5137,
      "admit": 5138,
      "loose": 5139,
      "lived": 5140,
      "imit": 5141,
      "prompt": 5142,
      "usive": 5143,
      "consc": 5144,
      "constant": 5145,
      "mois": 5146,
      "mood": 5147,
      "mention": 5148,
      "sustain": 5149,
      "excu": 5150,
      "quest": 5151,
      "manip": 5152,
      "pockets": 5153,
      "ategor": 5154,
      "emer": 5155,
      "estig": 5156,
      "shot": 5157,
      "interfere": 5158,
      "pelled": 5159,
      "collection": 5160,
      "tie": 5161,
      "Inte": 5162,
      "Heaven": 5163,
      "antly": 5164,
      "derive": 5165,
      "goal": 5166,
      "pled": 5167,
      "plate": 5168,
      "string": 5169,
      "bert": 5170,
      "recent": 5171,
      "intim": 5172,
      "introd": 5173,
      "forms": 5174,
      "angled": 5175,
      "clum": 5176,
      "acting": 5177,
      "glanced": 5178,
      "passions": 5179,
      "Reg": 5180,
      "correspond": 5181,
      "presence": 5182,
      "izes": 5183,
      "iality": 5184,
      "lights": 5185,
      "fling": 5186,
      "Auth": 5187,
      "eff": 5188,
      "energet": 5189,
      "signing": 5190,
      "signific": 5191,
      "pointing": 5192,
      "ventures": 5193,
      "Comput": 5194,
      "diagram": 5195,
      "cloak": 5196,
      "distinction": 5197,
      "ails": 5198,
      "poses": 5199,
      "appears": 5200,
      "ONN": 5201,
      "guine": 5202,
      "depth": 5203,
      "ifications": 5204,
      "cryptography": 5205,
      "factor": 5206,
      "region": 5207,
      "subst": 5208,
      "marry": 5209,
      "walks": 5210,
      "direct": 5211,
      "packages": 5212,
      "kindly": 5213,
      "Certainly": 5214,
      "remarkably": 5215,
      "structures": 5216,
      "carefully": 5217,
      "programming": 5218,
      "landlady": 5219,
      "config": 5220,
      "rolling": 5221,
      "normal": 5222,
      "watching": 5223,
      "streams": 5224,
      "trifle": 5225,
      "trifling": 5226,
      "vectors": 5227,
      "successfully": 5228,
      "aneous": 5229,
      "mirror": 5230,
      "trained": 5231,
      "classes": 5232,
      "throwing": 5233,
      "belief": 5234,
      "building": 5235,
      "Identity": 5236,
      "measure": 5237,
      "delicacy": 5238,
      "customary": 5239,
      "original": 5240,
      "Suite": 5241,
      "caused": 5242,
      "magn": 5243,
      "tasks": 5244,
      "inquir": 5245,
      "employ": 5246,
      "Presentation": 5247,
      "thesis": 5248,
      "cuts": 5249,
      "attempts": 5250,
      "CBC": 5251,
      "independent": 5252,
      "procedures": 5253,
      "watched": 5254,
      "occasion": 5255,
      "investig": 5256,
      "ruin": 5257,
      "mapping": 5258,
      "ridic": 5259,
      "construction": 5260,
      "experiences": 5261,
      "incidents": 5262,
      "neighbourhood": 5263,
      "SCAN": 5264,
      "Twice": 5265,
      "radi": 5266,
      "distributed": 5267,
      "principles": 5268,
      "machine": 5269,
      "title": 5270,
      "Because": 5271,
      "Privacy": 5272,
      "Pitfalls": 5273,
      "baffled": 5274,
      "ransacked": 5275,
      "especially": 5276,
      "stiff": 5277,
      "excuse": 5278,
      "energetic": 5279,
      "))": 5280,
      "AGE": 5281,
      "BA": 5282,
      "DY": 5283,
      "Dom": 5284,
      "EA": 5285,
      "Event": 5286,
      "Fast": 5287,
      "GD": 5288,
      "Ge": 5289,
      "Ha": 5290,
      "Jav": 5291,
      "MAE": 5292,
      "Run": 5293,
      "Rust": 5294,
      "SD": 5295,
      "Ste": 5296,
      "Sub": 5297,
      "SIF": 5298,
      "Test": 5299,
      "Tens": 5300,
      "Vision": 5301,
      "bab": 5302,
      "bbl": 5303,
      "cof": 5304,
      "egg": 5305,
      "fy": 5306,
      "fat": 5307,
      "fitted": 5308,
      "ht": 5309,
      "han": 5310,
      "ipe": 5311,
      "ibr": 5312,
      "kers": 5313,
      "liness": 5314,
      "map": 5315,
      "mail": 5316,
      "pit": 5317,
      "phis": 5318,
      "ration": 5319,
      "rum": 5320,
      "ratt": 5321,
      "salt": 5322,
      "twel": 5323,
      "uel": 5324,
      "vill": 5325,
      "vity": 5326,
      "yield": 5327,
      "height": 5328,
      "heels": 5329,
      "inex": 5330,
      "input": 5331,
      "intell": 5332,
      "reaches": 5333,
      "iter": 5334,
      "ises": 5335,
      "issu": 5336,
      "isher": 5337,
      "istry": 5338,
      "thir": 5339,
      "alert": 5340,
      "aries": 5341,
      "arched": 5342,
      "seal": 5343,
      "role": 5344,
      "robust": 5345,
      "acti": 5346,
      "accent": 5347,
      "ette": 5348,
      "verted": 5349,
      "coll": 5350,
      "agg": 5351,
      "agr": 5352,
      "whist": 5353,
      "ece": 5354,
      "ayed": 5355,
      "youth": 5356,
      "lifi": 5357,
      "chin": 5358,
      "aming": 5359,
      "unpleasant": 5360,
      "deb": 5361,
      "depart": 5362,
      "absolutely": 5363,
      "ifest": 5364,
      "confirm": 5365,
      "irous": 5366,
      "notes": 5367,
      "quil": 5368,
      "trick": 5369,
      "poetry": 5370,
      "illation": 5371,
      "ilar": 5372,
      "upper": 5373,
      "upstairs": 5374,
      "compression": 5375,
      "committed": 5376,
      "internal": 5377,
      "interaction": 5378,
      "grad": 5379,
      "oked": 5380,
      "antic": 5381,
      "teous": 5382,
      "otherwise": 5383,
      "desirous": 5384,
      "knows": 5385,
      "serve": 5386,
      "eves": 5387,
      "bersecurity": 5388,
      "parame": 5389,
      "attend": 5390,
      "wore": 5391,
      "anged": 5392,
      "handling": 5393,
      "prud": 5394,
      "practic": 5395,
      "gled": 5396,
      "gling": 5397,
      "State": 5398,
      "obed": 5399,
      "observer": 5400,
      "observe": 5401,
      "earning": 5402,
      "failing": 5403,
      "shoulder": 5404,
      "courteous": 5405,
      "matrix": 5406,
      "orders": 5407,
      "carries": 5408,
      "die": 5409,
      "impul": 5410,
      "impact": 5411,
      "generation": 5412,
      "generics": 5413,
      "guide": 5414,
      "layers": 5415,
      "stands": 5416,
      "lengths": 5417,
      "visit": 5418,
      "report": 5419,
      "deduction": 5420,
      "Too": 5421,
      "inclined": 5422,
      "lington": 5423,
      "funny": 5424,
      "Cogn": 5425,
      "condition": 5426,
      "directions": 5427,
      "wondering": 5428,
      "plainly": 5429,
      "cruel": 5430,
      "drawers": 5431,
      "casc": 5432,
      "doubts": 5433,
      "sleeves": 5434,
      "drop": 5435,
      "clearing": 5436,
      "Diff": 5437,
      "paused": 5438,
      "named": 5439,
      "exploits": 5440,
      "breaking": 5441,
      "beside": 5442,
      "smoking": 5443,
      "ORT": 5444,
      "advise": 5445,
      "attered": 5446,
      "thrown": 5447,
      "sticks": 5448,
      "BODY": 5449,
      "Deception": 5450,
      "Roll": 5451,
      "builds": 5452,
      "freed": 5453,
      "animated": 5454,
      "hurriedly": 5455,
      "cigaret": 5456,
      "keeping": 5457,
      "shutting": 5458,
      "freely": 5459,
      "nobleman": 5460,
      "prepare": 5461,
      "GUAGE": 5462,
      "testing": 5463,
      "behavioral": 5464,
      "fingerprint": 5465,
      "ncy": 5466,
      "sorry": 5467,
      "motioned": 5468,
      "nicely": 5469,
      "startled": 5470,
      "difficult": 5471,
      "sliding": 5472,
      "attribute": 5473,
      "results": 5474,
      "Memory": 5475,
      "storage": 5476,
      "devil": 5477,
      "LANGUAGE": 5478,
      "borne": 5479,
      "descend": 5480,
      "descended": 5481,
      "Cybersecurity": 5482,
      "ography": 5483,
      "recognition": 5484,
      "adversarial": 5485,
      "respectable": 5486,
      "surrounded": 5487,
      "psycho": 5488,
      "buffer": 5489,
      "extraction": 5490,
      "Castle": 5491,
      "slipped": 5492,
      "ceased": 5493,
      "limbs": 5494,
      "hoarsely": 5495,
      "umbling": 5496,
      "whispered": 5497,
      "gesture": 5498,
      "theories": 5499,
      "Wilson": 5500,
      "tokens": 5501,
      "Descri": 5502,
      "hanging": 5503,
      "reputable": 5504,
      "leakage": 5505,
      "conclusion": 5506,
      "extreme": 5507,
      "organizational": 5508,
      "Analysis": 5509,
      "policy": 5510,
      "individual": 5511,
      "architecture": 5512,
      "Java": 5513,
      "Testing": 5514,
      "Tensor": 5515,
      "html": 5516,
      "twelve": 5517,
      "intellig": 5518,
      "issue": 5519,
      "activity": 5520,
      "confirmation": 5521,
      "practically": 5522,
      "Cognitive": 5523,
      "cigarette": 5524,
      "!—": 5525,
      "->": 5526,
      "02": 5527,
      "05": 5528,
      "09": 5529,
      "025": 5530,
      "36": 5531,
      "3C": 5532,
      "300": 5533,
      "4e": 5534,
      "54": 5535,
      "56": 5536,
      "98": 5537,
      "9e": 5538,
      "?.": 5539,
      "Ass": 5540,
      "Apri": 5541,
      "Agent": 5542,
      "Bits": 5543,
      "CH": 5544,
      "Care": 5545,
      "CSP": 5546,
      "Caching": 5547,
      "Categor": 5548,
      "Don": 5549,
      "Dist": 5550,
      "During": 5551,
      "Duck": 5552,
      "Eag": 5553,
      "Elliptic": 5554,
      "Full": 5555,
      "Ga": 5556,
      "GGP": 5557,
      "Have": 5558,
      "HIS": 5559,
      "LET": 5560,
      "Master": 5561,
      "Nay": 5562,
      "Number": 5563,
      "Own": 5564,
      "Opportun": 5565,
      "Options": 5566,
      "Pat": 5567,
      "Pay": 5568,
      "Pur": 5569,
      "Panacea": 5570,
      "Pwn2": 5571,
      "Rich": 5572,
      "Right": 5573,
      "Rules": 5574,
      "Ranges": 5575,
      "Sou": 5576,
      "Sun": 5577,
      "Sploit": 5578,
      "SHER": 5579,
      "Tag": 5580,
      "Tot": 5581,
      "Tags": 5582,
      "UN": 5583,
      "ULL": 5584,
      "West": 5585,
      "Wel": 5586,
      "Walton": 5587,
      "Wikipedia": 5588,
      "W3C": 5589,
      "]];": 5590,
      "_the": 5591,
      "_was": 5592,
      "_will": 5593,
      "_can": 5594,
      "_what": 5595,
      "a5": 5596,
      "afe": 5597,
      "b3": 5598,
      "ba": 5599,
      "blogs": 5600,
      "cc": 5601,
      "cy": 5602,
      "cake": 5603,
      "culti": 5604,
      "cakes": 5605,
      "culated": 5606,
      "d2": 5607,
      "dup": 5608,
      "dust": 5609,
      "dish": 5610,
      "died": 5611,
      "dined": 5612,
      "dawn": 5613,
      "eaves": 5614,
      "f1": 5615,
      "fits": 5616,
      "fav": 5617,
      "gro": 5618,
      "gid": 5619,
      "gith": 5620,
      "gall": 5621,
      "gence": 5622,
      "hast": 5623,
      "harm": 5624,
      "ili": 5625,
      "ians": 5626,
      "ilight": 5627,
      "lin": 5628,
      "lof": 5629,
      "lad": 5630,
      "lines": 5631,
      "mare": 5632,
      "mould": 5633,
      "musing": 5634,
      "nsa": 5635,
      "nav": 5636,
      "nica": 5637,
      "nails": 5638,
      "ocean": 5639,
      "pun": 5640,
      "pick": 5641,
      "pressed": 5642,
      "panacea": 5643,
      "pacing": 5644,
      "rare": 5645,
      "rors": 5646,
      "sq": 5647,
      "sr": 5648,
      "sz": 5649,
      "sen": 5650,
      "sig": 5651,
      "sans": 5652,
      "sigh": 5653,
      "square": 5654,
      "tag": 5655,
      "ture": 5656,
      "tick": 5657,
      "tiny": 5658,
      "uid": 5659,
      "uine": 5660,
      "wre": 5661,
      "wning": 5662,
      "yal": 5663,
      "yard": 5664,
      "“—": 5665,
      "hero": 5666,
      "hell": 5667,
      "heres": 5668,
      "inn": 5669,
      "inqui": 5670,
      "theat": 5671,
      "thered": 5672,
      ".........": 5673,
      "onag": 5674,
      "rever": 5675,
      "resu": 5676,
      "restr": 5677,
      "reign": 5678,
      "reins": 5679,
      "remot": 5680,
      "removed": 5681,
      "recollection": 5682,
      "atmo": 5683,
      "itute": 5684,
      "educ": 5685,
      "editions": 5686,
      "toile": 5687,
      "toml": 5688,
      "total": 5689,
      "isn": 5690,
      "isions": 5691,
      "andy": 5692,
      "andard": 5693,
      "orph": 5694,
      "orandom": 5695,
      "asc": 5696,
      "aside": 5697,
      "ingly": 5698,
      "alloc": 5699,
      "arily": 5700,
      "icious": 5701,
      "seated": 5702,
      "segmentation": 5703,
      "royal": 5704,
      "lev": 5705,
      "leap": 5706,
      "leaves": 5707,
      "stress": 5708,
      "accident": 5709,
      "belong": 5710,
      "behold": 5711,
      "beheld": 5712,
      "ller": 5713,
      "llous": 5714,
      "idance": 5715,
      "vellous": 5716,
      "whip": 5717,
      "forgery": 5718,
      "rika": 5719,
      "oted": 5720,
      "uted": 5721,
      "adventure": 5722,
      "losing": 5723,
      "lip": 5724,
      "lifted": 5725,
      "chill": 5726,
      "sober": 5727,
      "amount": 5728,
      "united": 5729,
      "unreliable": 5730,
      "undiscovered": 5731,
      "unfolded": 5732,
      "dem": 5733,
      "deem": 5734,
      "demon": 5735,
      "deals": 5736,
      "degre": 5737,
      "deformity": 5738,
      "urable": 5739,
      "abused": 5740,
      "ifix": 5741,
      "propaganda": 5742,
      "proxies": 5743,
      "usually": 5744,
      "consid": 5745,
      "consum": 5746,
      "concaten": 5747,
      "areas": 5748,
      "mock": 5749,
      "moving": 5750,
      "noted": 5751,
      "sul": 5752,
      "appar": 5753,
      "approved": 5754,
      "restored": 5755,
      "quality": 5756,
      "doth": 5757,
      "sheet": 5758,
      "bye": 5759,
      "managed": 5760,
      "manners": 5761,
      "tru": 5762,
      "tran": 5763,
      "trad": 5764,
      "tram": 5765,
      "pop": 5766,
      "pointer": 5767,
      "ours": 5768,
      "aining": 5769,
      "wear": 5770,
      "estate": 5771,
      "estIn": 5772,
      "shan": 5773,
      "shone": 5774,
      "shop": 5775,
      "shud": 5776,
      "ups": 5777,
      "updates": 5778,
      "updated": 5779,
      "comed": 5780,
      "complain": 5781,
      "compassed": 5782,
      "interconn": 5783,
      "interval": 5784,
      "interactions": 5785,
      "intermedi": 5786,
      "worn": 5787,
      "frowning": 5788,
      "ersburgh": 5789,
      "feared": 5790,
      "wheel": 5791,
      "nose": 5792,
      "nobody": 5793,
      "hoped": 5794,
      "ownership": 5795,
      "pering": 5796,
      "permit": 5797,
      "permedia": 5798,
      "spap": 5799,
      "spite": 5800,
      "grat": 5801,
      "2012": 5802,
      "2068": 5803,
      "anty": 5804,
      "plus": 5805,
      "umerated": 5806,
      "strate": 5807,
      "strang": 5808,
      "events": 5809,
      "cane": 5810,
      "fervent": 5811,
      "rectly": 5812,
      "105": 5813,
      "109": 5814,
      "Prot": 5815,
      "Propaganda": 5816,
      "parties": 5817,
      "couldn": 5818,
      "attached": 5819,
      "attaches": 5820,
      "140": 5821,
      "141": 5822,
      "142": 5823,
      "145": 5824,
      "wouldn": 5825,
      "audi": 5826,
      "Conventions": 5827,
      "inton": 5828,
      "formats": 5829,
      "typing": 5830,
      "angry": 5831,
      "clar": 5832,
      "clust": 5833,
      "bold": 5834,
      "handled": 5835,
      "ives": 5836,
      "looks": 5837,
      "howl": 5838,
      "uced": 5839,
      "ucifix": 5840,
      "eyed": 5841,
      "addition": 5842,
      "Traffic": 5843,
      "commands": 5844,
      "TCONT": 5845,
      "blank": 5846,
      "enced": 5847,
      "encour": 5848,
      "encounter": 5849,
      "disagree": 5850,
      "discard": 5851,
      "shares": 5852,
      "shape": 5853,
      "printed": 5854,
      "glory": 5855,
      "sses": 5856,
      "torate": 5857,
      "secre": 5858,
      "Stud": 5859,
      "Standard": 5860,
      "calling": 5861,
      "obsc": 5862,
      "167": 5863,
      "169": 5864,
      "132": 5865,
      "133": 5866,
      "135": 5867,
      "139": 5868,
      "Read": 5869,
      "Ready": 5870,
      "Replay": 5871,
      "earch": 5872,
      "Enter": 5873,
      "Ensure": 5874,
      "Enumerated": 5875,
      "throughout": 5876,
      "species": 5877,
      "spector": 5878,
      "brass": 5879,
      "bruary": 5880,
      "applocker": 5881,
      "scen": 5882,
      "scient": 5883,
      "scape": 5884,
      "begun": 5885,
      "finish": 5886,
      "identified": 5887,
      "calculated": 5888,
      "setup": 5889,
      "settled": 5890,
      "minim": 5891,
      "uded": 5892,
      "udorandom": 5893,
      "pattering": 5894,
      "170": 5895,
      "174": 5896,
      "122": 5897,
      "Expor": 5898,
      "Explo": 5899,
      "match": 5900,
      "smiling": 5901,
      "RFCs": 5902,
      "backups": 5903,
      "community": 5904,
      "newspap": 5905,
      "stock": 5906,
      "Added": 5907,
      "primar": 5908,
      "prize": 5909,
      "prizes": 5910,
      "ordin": 5911,
      "150": 5912,
      "154": 5913,
      "Resource": 5914,
      "Research": 5915,
      "expecting": 5916,
      "expressed": 5917,
      "explicit": 5918,
      "chest": 5919,
      "cart": 5920,
      "older": 5921,
      "bitterly": 5922,
      "nightmare": 5923,
      "implements": 5924,
      "implemen": 5925,
      "111": 5926,
      "steep": 5927,
      "291": 5928,
      "STAT": 5929,
      "iaarch": 5930,
      "generated": 5931,
      "hearty": 5932,
      "posite": 5933,
      "clients": 5934,
      "guest": 5935,
      "guidance": 5936,
      "layered": 5937,
      "soften": 5938,
      "smallest": 5939,
      "Transform": 5940,
      "dece": 5941,
      "decided": 5942,
      "Notes": 5943,
      "Securing": 5944,
      "repair": 5945,
      "Hypertext": 5946,
      "atching": 5947,
      "speed": 5948,
      "Poor": 5949,
      "fireplace": 5950,
      "DoD": 5951,
      "subsequ": 5952,
      "submitted": 5953,
      "marvellous": 5954,
      "Required": 5955,
      "atively": 5956,
      "whitepapers": 5957,
      "dingy": 5958,
      "ordered": 5959,
      "requested": 5960,
      "changing": 5961,
      "Although": 5962,
      "grown": 5963,
      "paprika": 5964,
      "ultane": 5965,
      "swim": 5966,
      "athing": 5967,
      "functional": 5968,
      "functionality": 5969,
      "needs": 5970,
      "crucifix": 5971,
      "choose": 5972,
      "chosen": 5973,
      "draws": 5974,
      "ACK": 5975,
      "hypermedia": 5976,
      "transmits": 5977,
      "particip": 5978,
      "giving": 5979,
      "ported": 5980,
      "difference": 5981,
      "viewed": 5982,
      "charge": 5983,
      "publication": 5984,
      "blocks": 5985,
      "lists": 5986,
      "HOLM": 5987,
      "cellaneous": 5988,
      "ributes": 5989,
      "599": 5990,
      "represents": 5991,
      "representations": 5992,
      "establishes": 5993,
      "clearly": 5994,
      "variants": 5995,
      "promises": 5996,
      "midst": 5997,
      "trial": 5998,
      "quiver": 5999,
      "LOCK": 6000,
      "Moving": 6001,
      "RSASSA": 6002,
      "authenticate": 6003,
      "uint32": 6004,
      "seconds": 6005,
      "approach": 6006,
      "implementing": 6007,
      "integr": 6008,
      "integers": 6009,
      "considering": 6010,
      "continually": 6011,
      "suffered": 6012,
      "shore": 6013,
      "preceded": 6014,
      "URN": 6015,
      "Edward": 6016,
      "creatures": 6017,
      "MIME": 6018,
      "besides": 6019,
      "route": 6020,
      "routes": 6021,
      "arrange": 6022,
      "abode": 6023,
      "2119": 6024,
      "Abused": 6025,
      "Abstract": 6026,
      "welcomed": 6027,
      "advancing": 6028,
      "Byte": 6029,
      "Char": 6030,
      "Change": 6031,
      "Changes": 6032,
      "gathered": 6033,
      "malicious": 6034,
      "classification": 6035,
      "legs": 6036,
      "Attackers": 6037,
      "penet": 6038,
      "studied": 6039,
      "fairly": 6040,
      "dining": 6041,
      "twilight": 6042,
      "meeting": 6043,
      "576": 6044,
      "5705": 6045,
      "6961": 6046,
      "Caches": 6047,
      "MS14": 6048,
      "property": 6049,
      "DigestIn": 6050,
      "Signed": 6051,
      "reaching": 6052,
      "Identify": 6053,
      "Normal": 6054,
      "Share": 6055,
      "measured": 6056,
      "acquire": 6057,
      "traveller": 6058,
      "checking": 6059,
      "checksum": 6060,
      "5077": 6061,
      "horrible": 6062,
      "33599": 6063,
      "Memo": 6064,
      "cigars": 6065,
      "environments": 6066,
      "circumstance": 6067,
      "6066": 6068,
      "voyages": 6069,
      "Valid": 6070,
      "cacheable": 6071,
      "standardization": 6072,
      "ENTS": 6073,
      "fortunes": 6074,
      "admirable": 6075,
      "admirably": 6076,
      "practical": 6077,
      "causes": 6078,
      "risk": 6079,
      "inquired": 6080,
      "delivery": 6081,
      "clerk": 6082,
      "period": 6083,
      "Implement": 6084,
      "Location": 6085,
      "accounts": 6086,
      "regarded": 6087,
      "reassemble": 6088,
      "Variants": 6089,
      "masses": 6090,
      "massive": 6091,
      "qualified": 6092,
      "qualities": 6093,
      "perceived": 6094,
      "perceiving": 6095,
      "Processing": 6096,
      "difficulty": 6097,
      "produced": 6098,
      "produces": 6099,
      "madness": 6100,
      "swelled": 6101,
      "swelling": 6102,
      "entials": 6103,
      "occurren": 6104,
      "singularly": 6105,
      "briefs": 6106,
      "Strange": 6107,
      "labour": 6108,
      "political": 6109,
      "weaknesses": 6110,
      "peasants": 6111,
      "framework": 6112,
      "Establish": 6113,
      "Establishment": 6114,
      "knees": 6115,
      "chronicle": 6116,
      "murderer": 6117,
      "Supported": 6118,
      "simultane": 6119,
      "yesterday": 6120,
      "rendered": 6121,
      "woods": 6122,
      "blessing": 6123,
      "Reliability": 6124,
      "Responses": 6125,
      "enumerateds": 6126,
      "shadows": 6127,
      "Office": 6128,
      "jpcert": 6129,
      "occasions": 6130,
      "Working": 6131,
      "adversaries": 6132,
      "discussion": 6133,
      "Everything": 6134,
      "February": 6135,
      "Obsoletes": 6136,
      "Persistent": 6137,
      "miles": 6138,
      "warmth": 6139,
      "convenient": 6140,
      "convenience": 6141,
      "permissions": 6142,
      "screaming": 6143,
      "Continue": 6144,
      "compliant": 6145,
      "compliance": 6146,
      "sweetness": 6147,
      "Methods": 6148,
      "u201d": 6149,
      "u201cig": 6150,
      "credit": 6151,
      "duty": 6152,
      "dreadfully": 6153,
      "rugged": 6154,
      "adventur": 6155,
      "officer": 6156,
      "Flags": 6157,
      "Turk": 6158,
      "harness": 6159,
      "width": 6160,
      "Checksum": 6161,
      "Again": 6162,
      "Coding": 6163,
      "CONTENTS": 6164,
      "HYDE": 6165,
      "genuine": 6166,
      "merely": 6167,
      "nationalities": 6168,
      "tampering": 6169,
      "wonders": 6170,
      "ghostly": 6171,
      "solitude": 6172,
      "hookah": 6173,
      "telescope": 6174,
      "rambles": 6175,
      "identifying": 6176,
      "Throughput": 6177,
      "Directorate": 6178,
      "maximum": 6179,
      "rapidly": 6180,
      "Calculation": 6181,
      "Vectors": 6182,
      "adjusted": 6183,
      "strumentation": 6184,
      "hierarchy": 6185,
      "MD5": 6186,
      "Scandal": 6187,
      "absence": 6188,
      "drunk": 6189,
      "Delay": 6190,
      "HKDF": 6191,
      "Miscellaneous": 6192,
      "Petersburgh": 6193,
      "Satan": 6194,
      "Slovaks": 6195,
      "cfm": 6196,
      "tenderness": 6197,
      "waist": 6198,
      "—’”": 6199,
      "infant": 6200,
      "envelope": 6201,
      "improvements": 6202,
      "consecutive": 6203,
      "emotions": 6204,
      "ignorant": 6205,
      "astonishing": 6206,
      "Constructed": 6207,
      "Authenticate": 6208,
      "puzzling": 6209,
      "major": 6210,
      "circuit": 6211,
      "bestowed": 6212,
      "OPTIONAL": 6213,
      "excitement": 6214,
      "sorrowful": 6215,
      "laboratory": 6216,
      "shrinking": 6217,
      "splendid": 6218,
      "Warnings": 6219,
      "flickering": 6220,
      "PowerSploit": 6221,
      "Geneva": 6222,
      "administrators": 6223,
      "Milan": 6224,
      "Tomonag": 6225,
      "conscious": 6226,
      "Integrity": 6227,
      "corresponding": 6228,
      "magnific": 6229,
      "Assurance": 6230,
      "April": 6231,
      "Category": 6232,
      "Eaglet": 6233,
      "HISTCONT": 6234,
      "Opportunistic": 6235,
      "Purpose": 6236,
      "Pwn2Own": 6237,
      "Richard": 6238,
      "Sunday": 6239,
      "SHERLOCK": 6240,
      "Total": 6241,
      "Welcome": 6242,
      "_the_": 6243,
      "_was_": 6244,
      "_will_": 6245,
      "_can_": 6246,
      "cultiv": 6247,
      "eavesdro": 6248,
      "github": 6249,
      "lofty": 6250,
      "sighed": 6251,
      "wreck": 6252,
      "inquiries": 6253,
      "resumed": 6254,
      "reigning": 6255,
      "atmosp": 6256,
      "toilet": 6257,
      "orphan": 6258,
      "degrees": 6259,
      "considered": 6260,
      "shudder": 6261,
      "intermediary": 6262,
      "Enumerateds": 6263,
      "scientific": 6264,
      "Exploitation": 6265,
      "primarily": 6266,
      "explicitly": 6267,
      "implementors": 6268,
      "iaarchive": 6269,
      "subsequent": 6270,
      "HOLMES": 6271,
      "DigestInfo": 6272,
      "simultaneously": 6273,
      "Tomonaga": 6274,
      "HISTCONTROL": 6275,
      "89": 6276,
      "800": 6277,
      "AS": 6278,
      "BP": 6279,
      "Bad": 6280,
      "Best": 6281,
      "CL": 6282,
      "CR": 6283,
      "Clear": 6284,
      "Eye": 6285,
      "Gram": 6286,
      "Hence": 6287,
      "Kan": 6288,
      "Kram": 6289,
      "Lit": 6290,
      "Nob": 6291,
      "PR": 6292,
      "Que": 6293,
      "RK": 6294,
      "Random": 6295,
      "SI": 6296,
      "SU": 6297,
      "Sh": 6298,
      "Side": 6299,
      "Slow": 6300,
      "Sci": 6301,
      "TF": 6302,
      "Tor": 6303,
      "User": 6304,
      "URE": 6305,
      "VC": 6306,
      "Von": 6307,
      "VENT": 6308,
      "Way": 6309,
      "Wall": 6310,
      "Xt": 6311,
      "ault": 6312,
      "bi": 6313,
      "bs": 6314,
      "bcry": 6315,
      "binary": 6316,
      "cto": 6317,
      "caching": 6318,
      "db": 6319,
      "dashed": 6320,
      "dilation": 6321,
      "een": 6322,
      "fn": 6323,
      "fab": 6324,
      "gitig": 6325,
      "gene": 6326,
      "honey": 6327,
      "json": 6328,
      "len": 6329,
      "lap": 6330,
      "lers": 6331,
      "lined": 6332,
      "mud": 6333,
      "mmed": 6334,
      "mstein": 6335,
      "non": 6336,
      "omy": 6337,
      "opt": 6338,
      "pin": 6339,
      "pto": 6340,
      "ral": 6341,
      "ric": 6342,
      "scope": 6343,
      "tur": 6344,
      "uries": 6345,
      "v3": 6346,
      "von": 6347,
      "vous": 6348,
      "voc": 6349,
      "zing": 6350,
      "zation": 6351,
      "zard": 6352,
      "info": 6353,
      "erc": 6354,
      "onoun": 6355,
      "rely": 6356,
      "reality": 6357,
      "recovery": 6358,
      "ata": 6359,
      "atial": 6360,
      "encode": 6361,
      "tom": 6362,
      "isive": 6363,
      "andoned": 6364,
      "orators": 6365,
      "asped": 6366,
      "ofing": 6367,
      "thur": 6368,
      "alo": 6369,
      "sevent": 6370,
      "stat": 6371,
      "stout": 6372,
      "style": 6373,
      "entangled": 6374,
      "eter": 6375,
      "eting": 6376,
      "idable": 6377,
      "ote": 6378,
      "otic": 6379,
      "utral": 6380,
      "adap": 6381,
      "lod": 6382,
      "lib": 6383,
      "chuck": 6384,
      "ung": 6385,
      "units": 6386,
      "urs": 6387,
      "abandoned": 6388,
      "usions": 6389,
      "sugg": 6390,
      "apt": 6391,
      "apon": 6392,
      "domin": 6393,
      "manag": 6394,
      "trade": 6395,
      "poster": 6396,
      "neutral": 6397,
      "weapon": 6398,
      "emb": 6399,
      "ships": 6400,
      "commit": 6401,
      "compelled": 6402,
      "licity": 6403,
      "inder": 6404,
      "ulster": 6405,
      "ulously": 6406,
      "interview": 6407,
      "color": 6408,
      "tight": 6409,
      "perience": 6410,
      "spark": 6411,
      "space": 6412,
      "spaces": 6413,
      "spatial": 6414,
      "waylaid": 6415,
      "grinder": 6416,
      "istics": 6417,
      "derivation": 6418,
      "ump": 6419,
      "umph": 6420,
      "desk": 6421,
      "destr": 6422,
      "eline": 6423,
      "Program": 6424,
      "ignant": 6425,
      "formerly": 6426,
      "formidable": 6427,
      "boards": 6428,
      "retrieval": 6429,
      "blink": 6430,
      "shab": 6431,
      "pronoun": 6432,
      "sync": 6433,
      "synchron": 6434,
      "brid": 6435,
      "bride": 6436,
      "readers": 6437,
      "sciss": 6438,
      "graphy": 6439,
      "prefer": 6440,
      "prepar": 6441,
      "preposter": 6442,
      "rail": 6443,
      "123": 6444,
      "energy": 6445,
      "stored": 6446,
      "publ": 6447,
      "Adversar": 6448,
      "Adventures": 6449,
      "primit": 6450,
      "signs": 6451,
      "signal": 6452,
      "moral": 6453,
      "morph": 6454,
      "Segmentation": 6455,
      "queen": 6456,
      "queue": 6457,
      "drifted": 6458,
      "nervous": 6459,
      "cretion": 6460,
      "implicit": 6461,
      "distur": 6462,
      "distillation": 6463,
      "heartily": 6464,
      "ensive": 6465,
      "sings": 6466,
      "respons": 6467,
      "components": 6468,
      "finds": 6469,
      "possibility": 6470,
      "regul": 6471,
      "Pool": 6472,
      "capac": 6473,
      "capabilities": 6474,
      "incisive": 6475,
      "questioning": 6476,
      "certainty": 6477,
      "sentence": 6478,
      "ordering": 6479,
      "supply": 6480,
      "package": 6481,
      "SSH": 6482,
      "deepest": 6483,
      "interests": 6484,
      "install": 6485,
      "objects": 6486,
      "crack": 6487,
      "indicators": 6488,
      "cabman": 6489,
      "hypo": 6490,
      "personal": 6491,
      "monitoring": 6492,
      "Lock": 6493,
      "confusion": 6494,
      "blocking": 6495,
      "relap": 6496,
      "related": 6497,
      "summ": 6498,
      "closely": 6499,
      "centuries": 6500,
      "triumph": 6501,
      "intel": 6502,
      "considerations": 6503,
      "greeting": 6504,
      "kingdom": 6505,
      "differential": 6506,
      "balancing": 6507,
      "ostlers": 6508,
      "techniques": 6509,
      "hopeless": 6510,
      "characters": 6511,
      "Absolutely": 6512,
      "Arthur": 6513,
      "NeRF": 6514,
      "NeXt": 6515,
      "brilli": 6516,
      "TypeScript": 6517,
      "returns": 6518,
      "viously": 6519,
      "mistake": 6520,
      "resolute": 6521,
      "univers": 6522,
      "BOM": 6523,
      "safely": 6524,
      "Final": 6525,
      "Road": 6526,
      "ADVENT": 6527,
      "channels": 6528,
      "Techniques": 6529,
      "Ormstein": 6530,
      "hereditary": 6531,
      "injuring": 6532,
      "injured": 6533,
      "contrary": 6534,
      "digital": 6535,
      "problems": 6536,
      "shouting": 6537,
      "slave": 6538,
      "costume": 6539,
      "OpenV": 6540,
      "culture": 6541,
      "lounged": 6542,
      "lounging": 6543,
      "loungers": 6544,
      "attribution": 6545,
      "numerous": 6546,
      "strikes": 6547,
      "Behavioral": 6548,
      "Stolen": 6549,
      "Warsaw": 6550,
      "Relationships": 6551,
      "vulnerable": 6552,
      "psych": 6553,
      "duties": 6554,
      "dreadful": 6555,
      "narrative": 6556,
      "endeavouring": 6557,
      "bundle": 6558,
      "carelessly": 6559,
      "Practical": 6560,
      "Practices": 6561,
      "professional": 6562,
      "auditing": 6563,
      "Depend": 6564,
      "Blue": 6565,
      "delete": 6566,
      "dozen": 6567,
      "afford": 6568,
      "Examples": 6569,
      "reflected": 6570,
      "Edgeware": 6571,
      "satisfies": 6572,
      "Guard": 6573,
      "patterns": 6574,
      "Class": 6575,
      "threshold": 6576,
      "Ticket": 6577,
      "federated": 6578,
      "emerged": 6579,
      "intimate": 6580,
      "clumsy": 6581,
      "ONNX": 6582,
      "mirroring": 6583,
      "inquiry": 6584,
      "employing": 6585,
      "SIFT": 6586,
      "phishing": 6587,
      "parameter": 6588,
      "Diffusion": 6589,
      "JavaScript": 6590,
      "Kramm": 6591,
      "Torch": 6592,
      "URES": 6593,
      "bcrypt": 6594,
      "gitignore": 6595,
      "seventeen": 6596,
      "chuckled": 6597,
      "suggest": 6598,
      "scissors": 6599,
      "preposterous": 6600,
      "Adversarial": 6601,
      "morphic": 6602,
      "brilliantly": 6603,
      "ADVENTURES": 6604,
      "',": 6605,
      "Cut": 6606,
      "DH": 6607,
      "Ef": 6608,
      "Ev": 6609,
      "Esq": 6610,
      "House": 6611,
      "Lar": 6612,
      "Lip": 6613,
      "MO": 6614,
      "MY": 6615,
      "Mad": 6616,
      "Pack": 6617,
      "Russian": 6618,
      "SY": 6619,
      "Sw": 6620,
      "Sit": 6621,
      "Sax": 6622,
      "Surve": 6623,
      "Wo": 6624,
      "aquil": 6625,
      "bachelor": 6626,
      "cen": 6627,
      "ewel": 6628,
      "fishes": 6629,
      "gig": 6630,
      "gress": 6631,
      "hid": 6632,
      "iable": 6633,
      "irect": 6634,
      "journal": 6635,
      "jewel": 6636,
      "luck": 6637,
      "lenses": 6638,
      "mac": 6639,
      "pan": 6640,
      "scri": 6641,
      "sics": 6642,
      "toned": 6643,
      "vary": 6644,
      "wire": 6645,
      "yance": 6646,
      "heap": 6647,
      "hesit": 6648,
      "inform": 6649,
      "informed": 6650,
      "thetic": 6651,
      "erve": 6652,
      "reve": 6653,
      "reward": 6654,
      "itative": 6655,
      "edback": 6656,
      "edges": 6657,
      "tops": 6658,
      "toast": 6659,
      "orid": 6660,
      "ority": 6661,
      "ason": 6662,
      "arrest": 6663,
      "sex": 6664,
      "sell": 6665,
      "league": 6666,
      "stared": 6667,
      "acle": 6668,
      "beef": 6669,
      "becomes": 6670,
      "vein": 6671,
      "agitation": 6672,
      "whate": 6673,
      "rive": 6674,
      "adop": 6675,
      "liars": 6676,
      "lifet": 6677,
      "chat": 6678,
      "chances": 6679,
      "choked": 6680,
      "som": 6681,
      "amiable": 6682,
      "unit": 6683,
      "unusual": 6684,
      "impatience": 6685,
      "dex": 6686,
      "depar": 6687,
      "uration": 6688,
      "urried": 6689,
      "abor": 6690,
      "progress": 6691,
      "console": 6692,
      "confined": 6693,
      "arency": 6694,
      "supers": 6695,
      "apart": 6696,
      "exe": 6697,
      "excus": 6698,
      "quant": 6699,
      "saved": 6700,
      "manifest": 6701,
      "poly": 6702,
      "ourselves": 6703,
      "web": 6704,
      "ilt": 6705,
      "shif": 6706,
      "shift": 6707,
      "compromised": 6708,
      "licates": 6709,
      "indis": 6710,
      "ulating": 6711,
      "peering": 6712,
      "feedback": 6713,
      "omin": 6714,
      "grin": 6715,
      "grating": 6716,
      "grasp": 6717,
      "asser": 6718,
      "istence": 6719,
      "plat": 6720,
      "umn": 6721,
      "desper": 6722,
      "strug": 6723,
      "evasion": 6724,
      "recy": 6725,
      "recess": 6726,
      "paragr": 6727,
      "atting": 6728,
      "pses": 6729,
      "cribed": 6730,
      "avy": 6731,
      "avia": 6732,
      "disgu": 6733,
      "shag": 6734,
      "pray": 6735,
      "secrecy": 6736,
      "extended": 6737,
      "obst": 6738,
      "Environ": 6739,
      "special": 6740,
      "brave": 6741,
      "corners": 6742,
      "pressure": 6743,
      "scale": 6744,
      "aphs": 6745,
      "flamed": 6746,
      "florid": 6747,
      "sets": 6748,
      "refuse": 6749,
      "medical": 6750,
      "Ada": 6751,
      "Common": 6752,
      "diverted": 6753,
      "nerves": 6754,
      "locality": 6755,
      "minded": 6756,
      "depended": 6757,
      "Tracking": 6758,
      "curled": 6759,
      "venv": 6760,
      "chamois": 6761,
      "built": 6762,
      "purse": 6763,
      "purposes": 6764,
      "ables": 6765,
      "directories": 6766,
      "packaging": 6767,
      "kindliness": 6768,
      "precious": 6769,
      "runs": 6770,
      "aution": 6771,
      "autumn": 6772,
      "join": 6773,
      "joined": 6774,
      "porary": 6775,
      "confide": 6776,
      "showing": 6777,
      "relish": 6778,
      "necessit": 6779,
      "promising": 6780,
      "fronts": 6781,
      "publicly": 6782,
      "remains": 6783,
      "rensics": 6784,
      "beauties": 6785,
      "completed": 6786,
      "speaks": 6787,
      "DEAR": 6788,
      "Yesterday": 6789,
      "Develop": 6790,
      "paign": 6791,
      "pathetic": 6792,
      "texture": 6793,
      "recorded": 6794,
      "preceding": 6795,
      "transparency": 6796,
      "filtering": 6797,
      "arranged": 6798,
      "sympathetic": 6799,
      "produce": 6800,
      "pictured": 6801,
      "availability": 6802,
      "mistaken": 6803,
      "resolution": 6804,
      "failed": 6805,
      "honourable": 6806,
      "boxing": 6807,
      "acquaint": 6808,
      "travelled": 6809,
      "cigar": 6810,
      "sunk": 6811,
      "preventing": 6812,
      "warned": 6813,
      "sensitive": 6814,
      "guardian": 6815,
      "glimpses": 6816,
      "separated": 6817,
      "Monday": 6818,
      "Monitoring": 6819,
      "difficulties": 6820,
      "NIST": 6821,
      "snake": 6822,
      "families": 6823,
      "rushing": 6824,
      "defense": 6825,
      "defenses": 6826,
      "physio": 6827,
      "princip": 6828,
      "European": 6829,
      "baggy": 6830,
      "equally": 6831,
      "equalled": 6832,
      "languid": 6833,
      "vanished": 6834,
      "pipe": 6835,
      "probable": 6836,
      "barbar": 6837,
      "authority": 6838,
      "guessed": 6839,
      "validation": 6840,
      "Secrets": 6841,
      "Forensics": 6842,
      "Person": 6843,
      "dimly": 6844,
      "sandboxing": 6845,
      "violence": 6846,
      "fifty": 6847,
      "impatiently": 6848,
      "consul": 6849,
      "earnestly": 6850,
      "binding": 6851,
      "rubbing": 6852,
      "obliged": 6853,
      "rejoiced": 6854,
      "development": 6855,
      "shriek": 6856,
      "claimed": 6857,
      "campaign": 6858,
      "alternative": 6859,
      "guinea": 6860,
      "Subst": 6861,
      "coffee": 6862,
      "villa": 6863,
      "robustness": 6864,
      "collabor": 6865,
      "whistled": 6866,
      "obedience": 6867,
      "impulse": 6868,
      "freedom": 6869,
      "intelligence": 6870,
      "Distribution": 6871,
      "Large": 6872,
      "aquiline": 6873,
      "gigantic": 6874,
      "reveal": 6875,
      "whatever": 6876,
      "adopted": 6877,
      "departed": 6878,
      "struggling": 6879,
      "paragraphs": 6880,
      "acquaintance": 6881,
      "()": 6882,
      "):": 6883,
      ")\\": 6884,
      "*(": 6885,
      "+---+---+": 6886,
      ".\"": 6887,
      ".(": 6888,
      ".--": 6889,
      "/\"": 6890,
      "0e": 6891,
      "010": 6892,
      "110": 6893,
      "119": 6894,
      "112": 6895,
      "118": 6896,
      "2a": 6897,
      "2e": 6898,
      "3Z": 6899,
      "4a": 6900,
      "4d": 6901,
      "4f": 6902,
      "414": 6903,
      "413": 6904,
      "412": 6905,
      "500": 6906,
      "7z": 6907,
      "82": 6908,
      "8c": 6909,
      "813": 6910,
      "93": 6911,
      "9a": 6912,
      "9b": 6913,
      "9c": 6914,
      ":—": 6915,
      ";”": 6916,
      "<<": 6917,
      "<--------": 6918,
      ">.": 6919,
      "AB": 6920,
      "AU": 6921,
      "Age": 6922,
      "Apr": 6923,
      "Allow": 6924,
      "Amer": 6925,
      "Async": 6926,
      "BT": 6927,
      "Bre": 6928,
      "Bou": 6929,
      "Bel": 6930,
      "Bram": 6931,
      "BCP": 6932,
      "BSD": 6933,
      "CT": 6934,
      "CV": 6935,
      "Cu": 6936,
      "Crow": 6937,
      "Cross": 6938,
      "CAR": 6939,
      "Crab": 6940,
      "Csz": 6941,
      "Dan": 6942,
      "Der": 6943,
      "Dam": 6944,
      "Dates": 6945,
      "Eth": 6946,
      "Ear": 6947,
      "Ele": 6948,
      "End": 6949,
      "East": 6950,
      "Either": 6951,
      "EBA": 6952,
      "Escape": 6953,
      "FF": 6954,
      "FER": 6955,
      "FOR": 6956,
      "Fury": 6957,
      "Failed": 6958,
      "Ger": 6959,
      "Gold": 6960,
      "Gross": 6961,
      "GET": 6962,
      "GLO": 6963,
      "HI": 6964,
      "HL": 6965,
      "Has": 6966,
      "Hot": 6967,
      "Hun": 6968,
      "Haw": 6969,
      "Hither": 6970,
      "Human": 6971,
      "Hole": 6972,
      "High": 6973,
      "Ill": 6974,
      "IEN": 6975,
      "IAN": 6976,
      "Idem": 6977,
      "IHL": 6978,
      "JO": 6979,
      "Jack": 6980,
      "JON": 6981,
      "Jug": 6982,
      "Ke": 6983,
      "Ky": 6984,
      "LE": 6985,
      "Land": 6986,
      "Lic": 6987,
      "Lab": 6988,
      "List": 6989,
      "Lite": 6990,
      "Latitude": 6991,
      "Lists": 6992,
      "Limit": 6993,
      "Learning": 6994,
      "Mat": 6995,
      "Mit": 6996,
      "Mor": 6997,
      "Mid": 6998,
      "Make": 6999,
      "Mapp": 7000,
      "Much": 7001,
      "Mail": 7002,
      "Match": 7003,
      "Mech": 7004,
      "Merc": 7005,
      "NA": 7006,
      "NULL": 7007,
      "OC": 7008,
      "OV": 7009,
      "Old": 7010,
      "Ori": 7011,
      "OWA": 7012,
      "Octo": 7013,
      "Psy": 7014,
      "Pip": 7015,
      "PRF": 7016,
      "PSS": 7017,
      "Path": 7018,
      "Padding": 7019,
      "PEND": 7020,
      "PGD": 7021,
      "Palo": 7022,
      "PHI": 7023,
      "RM": 7024,
      "Round": 7025,
      "Race": 7026,
      "Rey": 7027,
      "RATION": 7028,
      "RIS": 7029,
      "RDER": 7030,
      "SN": 7031,
      "Sing": 7032,
      "Say": 7033,
      "Sli": 7034,
      "Sim": 7035,
      "Spo": 7036,
      "Saw": 7037,
      "Sty": 7038,
      "Sever": 7039,
      "Scal": 7040,
      "Simp": 7041,
      "Sens": 7042,
      "Six": 7043,
      "Shall": 7044,
      "SMI": 7045,
      "SOP": 7046,
      "SCA": 7047,
      "Session": 7048,
      "Sends": 7049,
      "Said": 7050,
      "Swin": 7051,
      "SORT": 7052,
      "Safe": 7053,
      "SBOM": 7054,
      "T2": 7055,
      "Tn": 7056,
      "Tho": 7057,
      "Tok": 7058,
      "T14": 7059,
      "Text": 7060,
      "Task": 7061,
      "Tears": 7062,
      "Tale": 7063,
      "Taste": 7064,
      "TRAN": 7065,
      "TAB": 7066,
      "UM": 7067,
      "US": 7068,
      "UEBA": 7069,
      "V1": 7070,
      "Vis": 7071,
      "Vic": 7072,
      "Video": 7073,
      "WT": 7074,
      "WW": 7075,
      "Whe": 7076,
      "Wide": 7077,
      "X6": 7078,
      "XDR": 7079,
      "YON": 7080,
      "]]": 7081,
      "_not": 7082,
      "_she": 7083,
      "_would": 7084,
      "_never": 7085,
      "_That": 7086,
      "_secret": 7087,
      "_SHA": 7088,
      "_algorithms": 7089,
      "_traffic": 7090,
      "a2": 7091,
      "a4": 7092,
      "a6": 7093,
      "ae": 7094,
      "athe": 7095,
      "ais": 7096,
      "bis": 7097,
      "bod": 7098,
      "bol": 7099,
      "bade": 7100,
      "base": 7101,
      "bree": 7102,
      "bility": 7103,
      "bags": 7104,
      "barrow": 7105,
      "bining": 7106,
      "c4": 7107,
      "cro": 7108,
      "cow": 7109,
      "cous": 7110,
      "cast": 7111,
      "cuc": 7112,
      "cv2": 7113,
      "climb": 7114,
      "dd": 7115,
      "dn": 7116,
      "dang": 7117,
      "due": 7118,
      "dried": 7119,
      "e1": 7120,
      "e2": 7121,
      "eli": 7122,
      "eps": 7123,
      "eating": 7124,
      "easter": 7125,
      "f9": 7126,
      "fake": 7127,
      "fainted": 7128,
      "gam": 7129,
      "gain": 7130,
      "game": 7131,
      "gable": 7132,
      "gant": 7133,
      "gges": 7134,
      "gift": 7135,
      "hack": 7136,
      "hats": 7137,
      "hicle": 7138,
      "jar": 7139,
      "jected": 7140,
      "jury": 7141,
      "kn": 7142,
      "kick": 7143,
      "lou": 7144,
      "lend": 7145,
      "lone": 7146,
      "lished": 7147,
      "leness": 7148,
      "lux": 7149,
      "mas": 7150,
      "mus": 7151,
      "mate": 7152,
      "mity": 7153,
      "mical": 7154,
      "mered": 7155,
      "masked": 7156,
      "mult": 7157,
      "mush": 7158,
      "nly": 7159,
      "nons": 7160,
      "naut": 7161,
      "nause": 7162,
      "nIdentify": 7163,
      "ore": 7164,
      "oke": 7165,
      "opp": 7166,
      "oak": 7167,
      "othed": 7168,
      "pall": 7169,
      "pant": 7170,
      "pies": 7171,
      "pause": 7172,
      "paws": 7173,
      "rated": 7174,
      "rase": 7175,
      "rude": 7176,
      "rash": 7177,
      "rants": 7178,
      "rfc": 7179,
      "sk": 7180,
      "sin": 7181,
      "slo": 7182,
      "sch": 7183,
      "sway": 7184,
      "sought": 7185,
      "slight": 7186,
      "sinc": 7187,
      "sank": 7188,
      "session": 7189,
      "sizes": 7190,
      "tation": 7191,
      "tast": 7192,
      "tact": 7193,
      "tting": 7194,
      "tues": 7195,
      "taught": 7196,
      "usel": 7197,
      "uating": 7198,
      "v8": 7199,
      "vine": 7200,
      "video": 7201,
      "vNeXt": 7202,
      "wis": 7203,
      "wound": 7204,
      "wretched": 7205,
      "xing": 7206,
      "yars": 7207,
      "”;": 7208,
      "......": 7209,
      "heir": 7210,
      "iner": 7211,
      "inher": 7212,
      "inno": 7213,
      "inative": 7214,
      "inhabit": 7215,
      "inspector": 7216,
      "aned": 7217,
      "anom": 7218,
      "annotation": 7219,
      "theft": 7220,
      "erally": 7221,
      "onies": 7222,
      "onical": 7223,
      "reed": 7224,
      "remo": 7225,
      "reast": 7226,
      "reset": 7227,
      "renew": 7228,
      "reared": 7229,
      "relay": 7230,
      "rehen": 7231,
      "recover": 7232,
      "retransmission": 7233,
      "retransmitted": 7234,
      "retired": 7235,
      "reverse": 7236,
      "reproduc": 7237,
      "refined": 7238,
      "attire": 7239,
      "engr": 7240,
      "enant": 7241,
      "envision": 7242,
      "enorm": 7243,
      "encompassed": 7244,
      "eding": 7245,
      "editor": 7246,
      "toiling": 7247,
      "isy": 7248,
      "ising": 7249,
      "isure": 7250,
      "isite": 7251,
      "astr": 7252,
      "asted": 7253,
      "assure": 7254,
      "ashes": 7255,
      "assail": 7256,
      "ofs": 7257,
      "offer": 7258,
      "thri": 7259,
      "thak": 7260,
      "thunder": 7261,
      "thump": 7262,
      "alter": 7263,
      "alive": 7264,
      "alty": 7265,
      "..................": 7266,
      "...................": 7267,
      "ario": 7268,
      "icing": 7269,
      "icated": 7270,
      "icine": 7271,
      "sele": 7272,
      "secl": 7273,
      "sembl": 7274,
      "selection": 7275,
      "roast": 7276,
      "rotation": 7277,
      "leys": 7278,
      "leGAN": 7279,
      "leisure": 7280,
      "sting": 7281,
      "stup": 7282,
      "stack": 7283,
      "stature": 7284,
      "states": 7285,
      "stants": 7286,
      "enty": 7287,
      "entice": 7288,
      "entities": 7289,
      "entreated": 7290,
      "meat": 7291,
      "memo": 7292,
      "metain": 7293,
      "belt": 7294,
      "befallen": 7295,
      "beloved": 7296,
      "haun": 7297,
      "haust": 7298,
      "terri": 7299,
      "terror": 7300,
      "terrible": 7301,
      "verish": 7302,
      "versing": 7303,
      "--+----": 7304,
      "llen": 7305,
      "cot": 7306,
      "codes": 7307,
      "copes": 7308,
      "coax": 7309,
      "idity": 7310,
      "idol": 7311,
      "vehicle": 7312,
      "agreed": 7313,
      "whol": 7314,
      "whither": 7315,
      "whirl": 7316,
      "whilst": 7317,
      "forbid": 7318,
      "wasn": 7319,
      "rily": 7320,
      "rious": 7321,
      "rived": 7322,
      "utter": 7323,
      "utions": 7324,
      "utenant": 7325,
      "aying": 7326,
      "ading": 7327,
      "advis": 7328,
      "advice": 7329,
      "lored": 7330,
      "loaf": 7331,
      "loop": 7332,
      "loss": 7333,
      "loathing": 7334,
      "Therap": 7335,
      "lius": 7336,
      "liest": 7337,
      "liber": 7338,
      "ligence": 7339,
      "chase": 7340,
      "chick": 7341,
      "charm": 7342,
      "chanced": 7343,
      "chival": 7344,
      "chief": 7345,
      "soothing": 7346,
      "withdrew": 7347,
      "ames": 7348,
      "ample": 7349,
      "ambig": 7350,
      "mypy": 7351,
      "uncommon": 7352,
      "unnecessary": 7353,
      "unworth": 7354,
      "unfortunate": 7355,
      "uninterpreted": 7356,
      "uncomfortable": 7357,
      "unhappy": 7358,
      "unlimited": 7359,
      "unparalle": 7360,
      "develo": 7361,
      "abot": 7362,
      "abuse": 7363,
      "absent": 7364,
      "abstract": 7365,
      "abreast": 7366,
      "iffer": 7367,
      "prosec": 7368,
      "conqu": 7369,
      "consol": 7370,
      "convic": 7371,
      "iron": 7372,
      "irregular": 7373,
      "sues": 7374,
      "sugges": 7375,
      "sullen": 7376,
      "api": 7377,
      "apples": 7378,
      "apsul": 7379,
      "excur": 7380,
      "exceed": 7381,
      "resist": 7382,
      "restor": 7383,
      "resides": 7384,
      "resisted": 7385,
      "resources": 7386,
      "restore": 7387,
      "quet": 7388,
      "quill": 7389,
      "quence": 7390,
      "quitted": 7391,
      "quanti": 7392,
      "sailing": 7393,
      "trap": 7394,
      "trait": 7395,
      "trains": 7396,
      "traps": 7397,
      "output": 7398,
      "outines": 7399,
      "polished": 7400,
      "neg": 7401,
      "neath": 7402,
      "neuro": 7403,
      "nelius": 7404,
      ".”)": 7405,
      "butter": 7406,
      "butler": 7407,
      "weep": 7408,
      "emin": 7409,
      "estic": 7410,
      "estable": 7411,
      "endured": 7412,
      "endian": 7413,
      "shir": 7414,
      "shiver": 7415,
      "shining": 7416,
      "upright": 7417,
      "update": 7418,
      "ardent": 7419,
      "ardently": 7420,
      "compat": 7421,
      "compart": 7422,
      "composure": 7423,
      "comfits": 7424,
      "igious": 7425,
      "igators": 7426,
      "licitor": 7427,
      "indiffer": 7428,
      "ackets": 7429,
      "ulous": 7430,
      "ulations": 7431,
      "interprocess": 7432,
      "intermediate": 7433,
      "interrup": 7434,
      "peare": 7435,
      "peak": 7436,
      "peep": 7437,
      "peaks": 7438,
      "pepper": 7439,
      "pebbl": 7440,
      "nowhere": 7441,
      "worst": 7442,
      "frown": 7443,
      "ersploit": 7444,
      "feverish": 7445,
      "thistle": 7446,
      "whenever": 7447,
      "omas": 7448,
      "hol": 7449,
      "urely": 7450,
      "dating": 7451,
      "fol": 7452,
      "foster": 7453,
      "plex": 7454,
      "pleaded": 7455,
      "Inform": 7456,
      "Incorrect": 7457,
      "Independent": 7458,
      "Instrumentation": 7459,
      "persever": 7460,
      "permitted": 7461,
      "performed": 7462,
      "perpet": 7463,
      "perplex": 7464,
      "spent": 7465,
      "split": 7466,
      "grand": 7467,
      "grap": 7468,
      "grate": 7469,
      "grade": 7470,
      "assed": 7471,
      "assisted": 7472,
      "209": 7473,
      "2019": 7474,
      "Hear": 7475,
      "tel": 7476,
      "goals": 7477,
      "oline": 7478,
      "plum": 7479,
      "pline": 7480,
      "plenty": 7481,
      "redes": 7482,
      "Its": 7483,
      "umes": 7484,
      "umbri": 7485,
      "akout": 7486,
      "akened": 7487,
      "knowing": 7488,
      "strain": 7489,
      "straw": 7490,
      "littered": 7491,
      "literally": 7492,
      "working": 7493,
      "elbow": 7494,
      "ferret": 7495,
      "recalled": 7496,
      "recipe": 7497,
      "104": 7498,
      "108": 7499,
      "Prov": 7500,
      "Project": 7501,
      "Proxies": 7502,
      "Provisions": 7503,
      "affir": 7504,
      "hedge": 7505,
      "attended": 7506,
      "attending": 7507,
      "143": 7508,
      "147": 7509,
      "14T": 7510,
      "1400": 7511,
      "inequalities": 7512,
      "Contr": 7513,
      "Conversion": 7514,
      "Constant": 7515,
      "Conquer": 7516,
      "ConvNeXt": 7517,
      "Constants": 7518,
      "intense": 7519,
      "introduction": 7520,
      "tyard": 7521,
      "angrily": 7522,
      "clad": 7523,
      "clone": 7524,
      "boat": 7525,
      "boys": 7526,
      "handshaking": 7527,
      "contem": 7528,
      "contest": 7529,
      "contact": 7530,
      "contributors": 7531,
      "contrived": 7532,
      "ivory": 7533,
      "opposite": 7534,
      "seeing": 7535,
      "Training": 7536,
      "TCB": 7537,
      "blown": 7538,
      "encapsul": 7539,
      "dissec": 7540,
      "displeas": 7541,
      "disaster": 7542,
      "disci": 7543,
      "discer": 7544,
      "disappearance": 7545,
      "disgrace": 7546,
      "district": 7547,
      "shaken": 7548,
      "pride": 7549,
      "proud": 7550,
      "passwords": 7551,
      "ERVI": 7552,
      "States": 7553,
      "Stream": 7554,
      "Static": 7555,
      "extent": 7556,
      "syn": 7557,
      "sys": 7558,
      "keyed": 7559,
      "eldest": 7560,
      "modest": 7561,
      "modify": 7562,
      "overcame": 7563,
      "overhead": 7564,
      "overcome": 7565,
      "misfortunes": 7566,
      "160": 7567,
      "164": 7568,
      "Weak": 7569,
      "136": 7570,
      "ReID": 7571,
      "Replaces": 7572,
      "earls": 7573,
      "doorway": 7574,
      "1990": 7575,
      "faith": 7576,
      "4676": 7577,
      "branc": 7578,
      "brush": 7579,
      "brandy": 7580,
      "correctly": 7581,
      "engage": 7582,
      "engineering": 7583,
      "apprehen": 7584,
      "theirs": 7585,
      "connect": 7586,
      "longed": 7587,
      "longing": 7588,
      "izon": 7589,
      "marks": 7590,
      "scr": 7591,
      "scrap": 7592,
      "scanty": 7593,
      "beggar": 7594,
      "While": 7595,
      "Whilst": 7596,
      "underlying": 7597,
      "underneath": 7598,
      "identifier": 7599,
      "identiality": 7600,
      "calibr": 7601,
      "flour": 7602,
      "flash": 7603,
      "flush": 7604,
      "offers": 7605,
      "setting": 7606,
      "setgid": 7607,
      "setuid": 7608,
      "Contributors": 7609,
      "face_": 7610,
      "Interview": 7611,
      "minate": 7612,
      "udd": 7613,
      "preference": 7614,
      "providing": 7615,
      "fulfilled": 7616,
      "172": 7617,
      "121": 7618,
      "125": 7619,
      "126": 7620,
      "127": 7621,
      "129": 7622,
      "1851": 7623,
      "Exch": 7624,
      "Except": 7625,
      "External": 7626,
      "Exploit": 7627,
      "courtly": 7628,
      "courtyard": 7629,
      "refresh": 7630,
      "mates": 7631,
      "matching": 7632,
      "matically": 7633,
      "maturely": 7634,
      "HAN": 7635,
      "HARK": 7636,
      "smiled": 7637,
      "hired": 7638,
      "backward": 7639,
      "background": 7640,
      "daylight": 7641,
      "daydreams": 7642,
      "ifically": 7643,
      "founded": 7644,
      "friendly": 7645,
      "402": 7646,
      "40Z": 7647,
      "medicine": 7648,
      "stores": 7649,
      "partly": 7650,
      "ancient": 7651,
      "pulling": 7652,
      "Advice": 7653,
      "Admir": 7654,
      "certified": 7655,
      "153": 7656,
      "155": 7657,
      "156": 7658,
      "signatures": 7659,
      "Seeding": 7660,
      "Resum": 7661,
      "Reserved": 7662,
      "Restrict": 7663,
      "procession": 7664,
      "expedition": 7665,
      "chen": 7666,
      "cheeks": 7667,
      "chemical": 7668,
      "openings": 7669,
      "Compa": 7670,
      "Combining": 7671,
      "drift": 7672,
      "driving": 7673,
      "nightly": 7674,
      "lets": 7675,
      "valleys": 7676,
      "creep": 7677,
      "implied": 7678,
      "closer": 7679,
      "clothed": 7680,
      "detected": 7681,
      "detestable": 7682,
      "presents": 7683,
      "SAC": 7684,
      "SAM": 7685,
      "b53": 7686,
      "justice": 7687,
      "steam": 7688,
      "stepping": 7689,
      "STD": 7690,
      "STOR": 7691,
      "Though": 7692,
      "Thomas": 7693,
      "basis": 7694,
      "baseline": 7695,
      "generic": 7696,
      "hearted": 7697,
      "documents": 7698,
      "ailing": 7699,
      "posing": 7700,
      "draught": 7701,
      "guided": 7702,
      "dears": 7703,
      "dearer": 7704,
      "laying": 7705,
      "Soho": 7706,
      "Solicitor": 7707,
      "INK": 7708,
      "HTTPS": 7709,
      "decreas": 7710,
      "deception": 7711,
      "decisions": 7712,
      "decorators": 7713,
      "login": 7714,
      "respec": 7715,
      "follows": 7716,
      "Notice": 7717,
      "timer": 7718,
      "timing": 7719,
      "compared": 7720,
      "communications": 7721,
      "Force": 7722,
      "repress": 7723,
      "reported": 7724,
      "HEAD": 7725,
      "fici": 7726,
      "ficial": 7727,
      "rewed": 7728,
      "curtain": 7729,
      "dedicated": 7730,
      "gentleness": 7731,
      "facility": 7732,
      "factors": 7733,
      "facilities": 7734,
      "archbis": 7735,
      "regret": 7736,
      "fortnight": 7737,
      "ECDSA": 7738,
      "fireeye": 7739,
      "softly": 7740,
      "Anti": 7741,
      "capit": 7742,
      "captain": 7743,
      "denial": 7744,
      "denote": 7745,
      "Tool": 7746,
      "destiny": 7747,
      "momentary": 7748,
      "subs": 7749,
      "subtle": 7750,
      "margin": 7751,
      "childish": 7752,
      "childhood": 7753,
      "78b": 7754,
      "feels": 7755,
      "ARCH": 7756,
      "fecting": 7757,
      "entering": 7758,
      "receives": 7759,
      "Datagram": 7760,
      "conditionally": 7761,
      "Before": 7762,
      "ROP": 7763,
      "buff": 7764,
      "hardship": 7765,
      "purple": 7766,
      "purchase": 7767,
      "relieved": 7768,
      "directed": 7769,
      "severe": 7770,
      "severely": 7771,
      "coverage": 7772,
      "requesting": 7773,
      "wondered": 7774,
      "HelloRetry": 7775,
      "packets": 7776,
      "uctions": 7777,
      "tively": 7778,
      "homeward": 7779,
      "encrypt": 7780,
      "SSION": 7781,
      "globe": 7782,
      "Alto": 7783,
      "Also": 7784,
      "Certificates": 7785,
      "fearful": 7786,
      "pleasan": 7787,
      "pleased": 7788,
      "pleasurable": 7789,
      "untless": 7790,
      "untarily": 7791,
      "eleven": 7792,
      "elegant": 7793,
      "solid": 7794,
      "doubted": 7795,
      "crash": 7796,
      "cracked": 7797,
      "crowding": 7798,
      "counter": 7799,
      "choice": 7800,
      "+-----+-----+-----+-----+-----+": 7801,
      "90291": 7802,
      "ITE": 7803,
      "REFER": 7804,
      "python": 7805,
      "spirited": 7806,
      "fragmenting": 7807,
      "Requests": 7808,
      "uneasy": 7809,
      "insic": 7810,
      "insens": 7811,
      "insisted": 7812,
      "Recon": 7813,
      "Recap": 7814,
      "octagon": 7815,
      "definitions": 7816,
      "doubtless": 7817,
      "caresses": 7818,
      "poral": 7819,
      "portions": 7820,
      "protest": 7821,
      "differed": 7822,
      "ATHAN": 7823,
      "topic": 7824,
      "lectual": 7825,
      "fronti": 7826,
      "Englishman": 7827,
      "famine": 7828,
      "listens": 7829,
      "shows": 7830,
      "shower": 7831,
      "HOG": 7832,
      "grip": 7833,
      "relating": 7834,
      "relates": 7835,
      "Attention": 7836,
      "Attribution": 7837,
      "Attributes": 7838,
      "southern": 7839,
      "ucked": 7840,
      "succeed": 7841,
      "summer": 7842,
      "hunting": 7843,
      "north": 7844,
      "northern": 7845,
      "turns": 7846,
      "represented": 7847,
      "designers": 7848,
      "designations": 7849,
      "necessity": 7850,
      "century": 7851,
      "Uncle": 7852,
      "virtues": 7853,
      "hemeral": 7854,
      "glasses": 7855,
      "signature_algorithms": 7856,
      "MURDER": 7857,
      "pretend": 7858,
      "pretending": 7859,
      "swear": 7860,
      "trip": 7861,
      "blackness": 7862,
      "LOSOP": 7863,
      "Preferences": 7864,
      "authenticating": 7865,
      "authenticates": 7866,
      "dependence": 7867,
      "statement": 7868,
      "reasonable": 7869,
      "cupboards": 7870,
      "eaten": 7871,
      "easier": 7872,
      "trembled": 7873,
      "imagined": 7874,
      "imaginative": 7875,
      "approve": 7876,
      "approached": 7877,
      "approaching": 7878,
      "consideration": 7879,
      "continuous": 7880,
      "ringlets": 7881,
      "counting": 7882,
      "wanting": 7883,
      "fancies": 7884,
      "fancied": 7885,
      "fanciful": 7886,
      "pauses": 7887,
      "shoes": 7888,
      "shores": 7889,
      "shock": 7890,
      "shops": 7891,
      "effects": 7892,
      "colder": 7893,
      "younger": 7894,
      "traverse": 7895,
      "traversing": 7896,
      "elsewhere": 7897,
      "explore": 7898,
      "URL": 7899,
      "breast": 7900,
      "breathe": 7901,
      "bottom": 7902,
      "honest": 7903,
      "transparently": 7904,
      "flowers": 7905,
      "22209": 7906,
      "Editor": 7907,
      "EdDSA": 7908,
      "Edwin": 7909,
      "France": 7910,
      "filter": 7911,
      "gernaut": 7912,
      "DRP": 7913,
      "DRINK": 7914,
      "Without": 7915,
      "routed": 7916,
      "smoothing": 7917,
      "istered": 7918,
      "ORB": 7919,
      "fetches": 7920,
      "temporal": 7921,
      "prodigious": 7922,
      "..........................................................": 7923,
      "............................................................": 7924,
      "Ars": 7925,
      "Arlington": 7926,
      "Part": 7927,
      "Paris": 7928,
      "generalized": 7929,
      "advance": 7930,
      "651": 7931,
      "Access": 7932,
      "Caroline": 7933,
      "gaiety": 7934,
      "selecting": 7935,
      "selective": 7936,
      "occupies": 7937,
      "4492": 7938,
      "791": 7939,
      "793": 7940,
      "791851": 7941,
      "Modes": 7942,
      "dreaming": 7943,
      "legacy": 7944,
      "models": 7945,
      "volumes": 7946,
      "fellows": 7947,
      "possession": 7948,
      "brows": 7949,
      "penny": 7950,
      "studded": 7951,
      "mitigate": 7952,
      "fairer": 7953,
      "sleeping": 7954,
      "Specifically": 7955,
      "boundary": 7956,
      "dye": 7957,
      "humanity": 7958,
      "humanistic": 7959,
      "resolutions": 7960,
      "believed": 7961,
      "suitable": 7962,
      "fails": 7963,
      "Expect": 7964,
      "Explicit": 7965,
      "Upon": 7966,
      "Update": 7967,
      "Updating": 7968,
      "Versions": 7969,
      "associating": 7970,
      "properly": 7971,
      "PSKs": 7972,
      "Corp": 7973,
      "Cornelius": 7974,
      "Digging": 7975,
      "Digitally": 7976,
      "Finally": 7977,
      "Overall": 7978,
      "Rome": 7979,
      "Robert": 7980,
      "burst": 7981,
      "cloudless": 7982,
      "Identification": 7983,
      "Identifier": 7984,
      "Normative": 7985,
      "Shakes": 7986,
      "TODIN": 7987,
      "animal": 7988,
      "animation": 7989,
      "assume": 7990,
      "assured": 7991,
      "travelling": 7992,
      "502": 7993,
      "SEARCH": 7994,
      "T1151": 7995,
      "T1148": 7996,
      "T1174": 7997,
      "horse": 7998,
      "horizon": 7999,
      "acceptable": 8000,
      "-----+-----+-----+": 8001,
      "Fragments": 8002,
      "Marina": 8003,
      "PyTorch": 8004,
      "Various": 8005,
      "cabinets": 8006,
      "Issues": 8007,
      "sunset": 8008,
      "conversations": 8009,
      "profiling": 8010,
      "situated": 8011,
      "situations": 8012,
      "sufficiently": 8013,
      "arriving": 8014,
      "worthy": 8015,
      "prevents": 8016,
      "potential": 8017,
      "Technica": 8018,
      "Value": 8019,
      "conceive": 8020,
      "conceived": 8021,
      "executed": 8022,
      "middlebox": 8023,
      "originating": 8024,
      "APPEND": 8025,
      "Affecting": 8026,
      "dauntless": 8027,
      "sensation": 8028,
      "sensations": 8029,
      "Entities": 8030,
      "snowy": 8031,
      "asynchron": 8032,
      "asymmetric": 8033,
      "procure": 8034,
      "superflu": 8035,
      "quickly": 8036,
      "shelter": 8037,
      "Policy": 8038,
      "affectionate": 8039,
      "+--------------------------+----": 8040,
      "IVE": 8041,
      "Legal": 8042,
      "rising": 8043,
      "inquis": 8044,
      "whiskers": 8045,
      "Official": 8046,
      "paying": 8047,
      "bearer": 8048,
      "weeks": 8049,
      "ustration": 8050,
      "startling": 8051,
      "Negotiating": 8052,
      "injection": 8053,
      "anxiety": 8054,
      "accord": 8055,
      "contrast": 8056,
      "acknowledgments": 8057,
      "gladness": 8058,
      "specifying": 8059,
      "previously": 8060,
      "materials": 8061,
      "Algorithms": 8062,
      "Prizes": 8063,
      "QUITE": 8064,
      "digging": 8065,
      "ginia": 8066,
      "motions": 8067,
      "perceive": 8068,
      "Processes": 8069,
      "faults": 8070,
      "Postel": 8071,
      "consistent": 8072,
      "consistency": 8073,
      "mingled": 8074,
      "madly": 8075,
      "snort": 8076,
      "snatch": 8077,
      "escapes": 8078,
      "occurred": 8079,
      "Defender": 8080,
      "Defenses": 8081,
      "Errors": 8082,
      "General": 8083,
      "Generation": 8084,
      "Hosts": 8085,
      "T1012": 8086,
      "T1081": 8087,
      "T1084": 8088,
      "T1044": 8089,
      "catching": 8090,
      "damaged": 8091,
      "pseudorandom": 8092,
      "tongues": 8093,
      "season": 8094,
      "politics": 8095,
      "politely": 8096,
      "weakened": 8097,
      "frameworks": 8098,
      "satisfy": 8099,
      "lamplight": 8100,
      "increases": 8101,
      "Establishing": 8102,
      "CBT": 8103,
      "Timeout": 8104,
      "kneel": 8105,
      "knelt": 8106,
      "mixture": 8107,
      "Institute": 8108,
      "Nonverbal": 8109,
      "equival": 8110,
      "freshly": 8111,
      "storm": 8112,
      "stormy": 8113,
      "strips": 8114,
      "devoted": 8115,
      "projects": 8116,
      "concern": 8117,
      "shrine": 8118,
      "Systems": 8119,
      "Disposition": 8120,
      "Disambig": 8121,
      "LANYON": 8122,
      "Support": 8123,
      "Tell": 8124,
      "couple": 8125,
      "cherry": 8126,
      "cherish": 8127,
      "ee791851": 8128,
      "piece": 8129,
      "rays": 8130,
      "similar": 8131,
      "v1_5": 8132,
      "render": 8133,
      "renders": 8134,
      "splash": 8135,
      "controlled": 8136,
      "controlling": 8137,
      "obtained": 8138,
      "Reliable": 8139,
      "Relibility": 8140,
      "Additional": 8141,
      "Addresses": 8142,
      "responds": 8143,
      "switching": 8144,
      "dynamics": 8145,
      "procedure": 8146,
      "accordingly": 8147,
      "Offset": 8148,
      "Stoker": 8149,
      "born": 8150,
      "knocker": 8151,
      "waters": 8152,
      "agreeable": 8153,
      "authorized": 8154,
      "fashioned": 8155,
      "Canonical": 8156,
      "DPM": 8157,
      "World": 8158,
      "recognise": 8159,
      "clauses": 8160,
      "Powersploit": 8161,
      "biological": 8162,
      "dangerous": 8163,
      "military": 8164,
      "pdf": 8165,
      "salad": 8166,
      "talent": 8167,
      "vulnerabilities": 8168,
      "antial": 8169,
      "antique": 8170,
      "rocks": 8171,
      "screams": 8172,
      "benefactor": 8173,
      "Documents": 8174,
      "WAS": 8175,
      "divine": 8176,
      "mappings": 8177,
      "narrated": 8178,
      "painfully": 8179,
      "sadly": 8180,
      "lieutenant": 8181,
      "experienced": 8182,
      "tracking": 8183,
      "reflections": 8184,
      "medium": 8185,
      "neighbouring": 8186,
      "Flash": 8187,
      "fifteen": 8188,
      "walls": 8189,
      "consume": 8190,
      "illustrated": 8191,
      "illustrates": 8192,
      "umbled": 8193,
      "earnestness": 8194,
      "Agency": 8195,
      "Codings": 8196,
      "CONTROL": 8197,
      "Longitude": 8198,
      "OSINT": 8199,
      "SSARY": 8200,
      "ViT": 8201,
      "bonds": 8202,
      "fitting": 8203,
      "favourite": 8204,
      "microexpressions": 8205,
      "phase": 8206,
      "phases": 8207,
      "randomized": 8208,
      "wander": 8209,
      "wandered": 8210,
      "wondrous": 8211,
      "thirsty": 8212,
      "exerc": 8213,
      "poisoning": 8214,
      "indications": 8215,
      "telescopes": 8216,
      "government": 8217,
      "plunged": 8218,
      "rambling": 8219,
      "boots": 8220,
      "Authorization": 8221,
      "bashhistory": 8222,
      "Formats": 8223,
      "maximal": 8224,
      "initiative": 8225,
      "Northumbri": 8226,
      "declares": 8227,
      "Multiplexing": 8228,
      "Calculations": 8229,
      "VariantBody": 8230,
      "VariantTag": 8231,
      "familiarly": 8232,
      "Installer": 8233,
      "Black": 8234,
      "FireEye": 8235,
      "Management": 8236,
      "Magyars": 8237,
      "Perhaps": 8238,
      "burning": 8239,
      "dwelling": 8240,
      "muttering": 8241,
      "trotting": 8242,
      "assembling": 8243,
      "copyright": 8244,
      "afforded": 8245,
      "achieved": 8246,
      "achieve": 8247,
      "Example": 8248,
      "reflect": 8249,
      "initialize": 8250,
      "satisfied": 8251,
      "suspicions": 8252,
      "knocked": 8253,
      "knocking": 8254,
      "accomplish": 8255,
      "prediction": 8256,
      "neatly": 8257,
      "homomorphic": 8258,
      "assessment": 8259,
      "moustache": 8260,
      "Closure": 8261,
      "Denial": 8262,
      "HTML": 8263,
      "T1212": 8264,
      "T1223": 8265,
      "aaS": 8266,
      "gales": 8267,
      "hateful": 8268,
      "killing": 8269,
      "nodded": 8270,
      "pixi": 8271,
      "pixels": 8272,
      "involve": 8273,
      "solicitor": 8274,
      "consented": 8275,
      "modern": 8276,
      "moderate": 8277,
      "embedded": 8278,
      "embedding": 8279,
      "estimation": 8280,
      "persuaded": 8281,
      "persuading": 8282,
      "assistance": 8283,
      "despite": 8284,
      "despise": 8285,
      "expressive": 8286,
      "distasteful": 8287,
      "distinguish": 8288,
      "distinguished": 8289,
      "ENCE": 8290,
      "ENCES": 8291,
      "curtains": 8292,
      "curtsey": 8293,
      "elevates": 8294,
      "hungry": 8295,
      "Uniform": 8296,
      "University": 8297,
      "eagerness": 8298,
      "INTEGER": 8299,
      "INTEGRATION": 8300,
      "T1162": 8301,
      "T1166": 8302,
      "superstition": 8303,
      "magazine": 8304,
      "magazines": 8305,
      "Structure": 8306,
      "Structures": 8307,
      "incorporated": 8308,
      "Credentials": 8309,
      "DOOR": 8310,
      "Lucy": 8311,
      "NFB": 8312,
      "Virginia": 8313,
      "civili": 8314,
      "drowned": 8315,
      "kitchen": 8316,
      "sneering": 8317,
      "treats": 8318,
      "manipulation": 8319,
      "introduced": 8320,
      "Registry": 8321,
      "significant": 8322,
      "Computations": 8323,
      "radiance": 8324,
      "Domain": 8325,
      "EASE": 8326,
      "Runtime": 8327,
      "rattling": 8328,
      "thirteen": 8329,
      "sealed": 8330,
      "lified": 8331,
      "gradually": 8332,
      "cascade": 8333,
      "Rollback": 8334,
      "prepares": 8335,
      "Description": 8336,
      "02f": 8337,
      "Carew": 8338,
      "Gaussian": 8339,
      "LETTER": 8340,
      "Payload": 8341,
      "Southern": 8342,
      "_what_": 8343,
      "dusty": 8344,
      "favor": 8345,
      "gallant": 8346,
      "linen": 8347,
      "navigators": 8348,
      "picked": 8349,
      "srp": 8350,
      "heroes": 8351,
      "theatre": 8352,
      "remotely": 8353,
      "recollections": 8354,
      "educated": 8355,
      "ascending": 8356,
      "levard": 8357,
      "belongs": 8358,
      "demonstr": 8359,
      "consuming": 8360,
      "apparition": 8361,
      "truth": 8362,
      "tranquill": 8363,
      "traditions": 8364,
      "trampled": 8365,
      "pointers": 8366,
      "interconnecting": 8367,
      "gratification": 8368,
      "Protection": 8369,
      "audibly": 8370,
      "intonation": 8371,
      "clarifies": 8372,
      "encouraging": 8373,
      "discarded": 8374,
      "obscure": 8375,
      "Enterprise": 8376,
      "scenes": 8377,
      "minimum": 8378,
      "Exporters": 8379,
      "newspapers": 8380,
      "ordinate": 8381,
      "softened": 8382,
      "deceived": 8383,
      "swimming": 8384,
      "participate": 8385,
      "integration": 8386,
      "URNAL": 8387,
      "arrangements": 8388,
      "Charset": 8389,
      "penetrate": 8390,
      "Validators": 8391,
      "occurrence": 8392,
      "conveniently": 8393,
      "u201cigno": 8394,
      "adventurous": 8395,
      "waistcoat": 8396,
      "magnificent": 8397,
      "cultivated": 8398,
      "eavesdropping": 8399,
      "atmosphere": 8400,
      "Clearing": 8401,
      "Grammar": 8402,
      "Kanthak": 8403,
      "Little": 8404,
      "SURF": 8405,
      "Sciences": 8406,
      "managers": 8407,
      "preparing": 8408,
      "railway": 8409,
      "published": 8410,
      "primitive": 8411,
      "responsibility": 8412,
      "regulate": 8413,
      "Lockdown": 8414,
      "intellectual": 8415,
      "Environment": 8416,
      "collaborative": 8417,
      "+---+---+---+": 8418,
      "AUTODIN": 8419,
      "America": 8420,
      "Breakout": 8421,
      "Boulevard": 8422,
      "CAREW": 8423,
      "Cszeks": 8424,
      "Derivation": 8425,
      "Early": 8426,
      "Elements": 8427,
      "Germany": 8428,
      "Golden": 8429,
      "GLOSSARY": 8430,
      "Hotel": 8431,
      "Huns": 8432,
      "Hawkins": 8433,
      "Hitherto": 8434,
      "Illustration": 8435,
      "IENs": 8436,
      "IANA": 8437,
      "Idempotent": 8438,
      "JOURNAL": 8439,
      "JONATHAN": 8440,
      "Juggernaut": 8441,
      "License": 8442,
      "Matrix": 8443,
      "Mittel": 8444,
      "Morcar": 8445,
      "Middle": 8446,
      "Mappings": 8447,
      "Mechan": 8448,
      "Mercia": 8449,
      "OVERVI": 8450,
      "Older": 8451,
      "OWASP": 8452,
      "October": 8453,
      "Psycho": 8454,
      "Pipfile": 8455,
      "PaloAlto": 8456,
      "PHILOSOP": 8457,
      "Single": 8458,
      "Sayana": 8459,
      "Spoofing": 8460,
      "Sawbones": 8461,
      "StyleGAN": 8462,
      "Several": 8463,
      "Simplified": 8464,
      "Sensitive": 8465,
      "SMISSION": 8466,
      "Those": 8467,
      "T1488": 8468,
      "TRANSMISSION": 8469,
      "TABLE": 8470,
      "Victor": 8471,
      "Whether": 8472,
      "_would_": 8473,
      "_never_": 8474,
      "_That_": 8475,
      "_traffic_secret": 8476,
      "aead": 8477,
      "breeze": 8478,
      "barrowful": 8479,
      "cousin": 8480,
      "cucumber": 8481,
      "dangers": 8482,
      "eastern": 8483,
      "gamification": 8484,
      "knife": 8485,
      "louder": 8486,
      "lonely": 8487,
      "luxury": 8488,
      "music": 8489,
      "mushroom": 8490,
      "nonsense": 8491,
      "nausea": 8492,
      "oppress": 8493,
      "panting": 8494,
      "rashly": 8495,
      "sincere": 8496,
      "tastes": 8497,
      "useless": 8498,
      "innocent": 8499,
      "anomaly": 8500,
      "enormous": 8501,
      "selector": 8502,
      "stupid": 8503,
      "metainformation": 8504,
      "belts": 8505,
      "coaxing": 8506,
      "wholly": 8507,
      "advisable": 8508,
      "loafing": 8509,
      "liberty": 8510,
      "chicken": 8511,
      "unparalleled": 8512,
      "conquered": 8513,
      "conviction": 8514,
      "suggestions": 8515,
      "exceeding": 8516,
      "quantization": 8517,
      "weeping": 8518,
      "compatible": 8519,
      "peeped": 8520,
      "pebbles": 8521,
      "Informative": 8522,
      "ferrets": 8523,
      "Projects": 8524,
      "affirmative": 8525,
      "Conqueror": 8526,
      "dissecting": 8527,
      "displeasing": 8528,
      "discipline": 8529,
      "branches": 8530,
      "apprehension": 8531,
      "calibration": 8532,
      "HARKER": 8533,
      "Admiralty": 8534,
      "Compaq": 8535,
      "STORY": 8536,
      "archbishop": 8537,
      "buffers": 8538,
      "HelloRetryRequest": 8539,
      "+-----+-----+-----+-----+-----+-----+-----+-----+": 8540,
      "REFERENCES": 8541,
      "octagonal": 8542,
      "DigitallySigned": 8543,
      "Shakespeare": 8544,
      "APPENDIX": 8545,
      "asynchronously": 8546,
      "superfluous": 8547,
      "+--------------------------+----+": 8548,
      "equivalent": 8549,
      "Disambiguating": 8550,
      "Northumbria": 8551,
      "civilian": 8552,
      "OVERVIEW": 8553,
      "PHILOSOPHY": 8554,
      "115": 8555,
      "Ap": 8556,
      "Ack": 8557,
      "BB": 8558,
      "Band": 8559,
      "Bur": 8560,
      "Bery": 8561,
      "Bachelor": 8562,
      "Call": 8563,
      "Dev": 8564,
      "DAL": 8565,
      "E2": 8566,
      "EX": 8567,
      "Eg": 8568,
      "Egl": 8569,
      "Egri": 8570,
      "Eglow": 8571,
      "Fet": 8572,
      "Fry": 8573,
      "Feat": 8574,
      "Future": 8575,
      "Frequently": 8576,
      "Gop": 8577,
      "Gaz": 8578,
      "Gese": 8579,
      "HIN": 8580,
      "ISS": 8581,
      "Idle": 8582,
      "Jane": 8583,
      "Law": 8584,
      "Leag": 8585,
      "MF": 8586,
      "Med": 8587,
      "MAR": 8588,
      "Od": 8589,
      "OID": 8590,
      "Ph": 8591,
      "Pec": 8592,
      "Pap": 8593,
      "Pips": 8594,
      "Qual": 8595,
      "RC": 8596,
      "Rem": 8597,
      "Rob": 8598,
      "Scar": 8599,
      "Seven": 8600,
      "Square": 8601,
      "Space": 8602,
      "Trep": 8603,
      "UDP": 8604,
      "Vo": 8605,
      "Vulner": 8606,
      "WE": 8607,
      "Wed": 8608,
      "])": 8609,
      "cing": 8610,
      "cain": 8611,
      "cards": 8612,
      "clim": 8613,
      "dign": 8614,
      "dub": 8615,
      "e3": 8616,
      "fram": 8617,
      "gi": 8618,
      "gas": 8619,
      "gation": 8620,
      "gings": 8621,
      "gible": 8622,
      "hou": 8623,
      "hip": 8624,
      "iod": 8625,
      "irec": 8626,
      "ieth": 8627,
      "jan": 8628,
      "jection": 8629,
      "kled": 8630,
      "lat": 8631,
      "lish": 8632,
      "mills": 8633,
      "maker": 8634,
      "nit": 8635,
      "oing": 8636,
      "ogram": 8637,
      "ogene": 8638,
      "pip": 8639,
      "padding": 8640,
      "rat": 8641,
      "sme": 8642,
      "scom": 8643,
      "slit": 8644,
      "sink": 8645,
      "sque": 8646,
      "siness": 8647,
      "script": 8648,
      "tics": 8649,
      "tinted": 8650,
      "ube": 8651,
      "uber": 8652,
      "vague": 8653,
      "waved": 8654,
      "xes": 8655,
      "—‘": 8656,
      "inet": 8657,
      "incom": 8658,
      "instru": 8659,
      "theme": 8660,
      "ern": 8661,
      "onet": 8662,
      "onitz": 8663,
      "onomy": 8664,
      "reen": 8665,
      "reco": 8666,
      "atom": 8667,
      "enstein": 8668,
      "escal": 8669,
      "orient": 8670,
      "oform": 8671,
      "thro": 8672,
      "thos": 8673,
      "thief": 8674,
      "arous": 8675,
      "ros": 8676,
      "rospec": 8677,
      "lex": 8678,
      "sty": 8679,
      "entr": 8680,
      "beam": 8681,
      "behavi": 8682,
      "haft": 8683,
      "lland": 8684,
      "llsc": 8685,
      "cocain": 8686,
      "ider": 8687,
      "veil": 8688,
      "agger": 8689,
      "rigible": 8690,
      "echo": 8691,
      "eclips": 8692,
      "economy": 8693,
      "liance": 8694,
      "amp": 8695,
      "ams": 8696,
      "ament": 8697,
      "amiss": 8698,
      "unning": 8699,
      "unwr": 8700,
      "undated": 8701,
      "imen": 8702,
      "abhor": 8703,
      "absor": 8704,
      "propos": 8705,
      "essa": 8706,
      "essential": 8707,
      "conci": 8708,
      "notep": 8709,
      "suits": 8710,
      "aper": 8711,
      "explan": 8712,
      "experience": 8713,
      "exagger": 8714,
      "doings": 8715,
      "sheets": 8716,
      "trum": 8717,
      "traged": 8718,
      "tracting": 8719,
      "illness": 8720,
      "empted": 8721,
      "iles": 8722,
      "comput": 8723,
      "uled": 8724,
      "interro": 8725,
      "usted": 8726,
      "ustness": 8727,
      "focus": 8728,
      "Insens": 8729,
      "reduction": 8730,
      "umb": 8731,
      "umping": 8732,
      "desires": 8733,
      "arkable": 8734,
      "evidence": 8735,
      "ortify": 8736,
      "Prod": 8737,
      "attitude": 8738,
      "attempted": 8739,
      "ineer": 8740,
      "auth": 8741,
      "woven": 8742,
      "wooing": 8743,
      "Conan": 8744,
      "introspec": 8745,
      "clues": 8746,
      "clasped": 8747,
      "forefinger": 8748,
      "contempt": 8749,
      "iveness": 8750,
      "Trincom": 8751,
      "commonly": 8752,
      "disclo": 8753,
      "disgust": 8754,
      "distracting": 8755,
      "prun": 8756,
      "sector": 8757,
      "overlap": 8758,
      "throughput": 8759,
      "specimen": 8760,
      "spectrum": 8761,
      "scent": 8762,
      "scroll": 8763,
      "finite": 8764,
      "finally": 8765,
      "ialization": 8766,
      "flags": 8767,
      "Auto": 8768,
      "Contain": 8769,
      "presum": 8770,
      "predomin": 8771,
      "1888": 8772,
      "Explain": 8773,
      "backs": 8774,
      "versioning": 8775,
      "transformation": 8776,
      "transaction": 8777,
      "expect": 8778,
      "diversity": 8779,
      "stethos": 8780,
      "labe": 8781,
      "Thurs": 8782,
      "Thumb": 8783,
      "generator": 8784,
      "documentation": 8785,
      "missions": 8786,
      "softer": 8787,
      "crypto": 8788,
      "declar": 8789,
      "decision": 8790,
      "HEMI": 8791,
      "factories": 8792,
      "faculties": 8793,
      "Mystery": 8794,
      "maintain": 8795,
      "Doyle": 8796,
      "reasons": 8797,
      "perspec": 8798,
      "silhou": 8799,
      "questionable": 8800,
      "buried": 8801,
      "Atkins": 8802,
      "255": 8803,
      "placement": 8804,
      "precise": 8805,
      "precision": 8806,
      "alee": 8807,
      "athy": 8808,
      "crusted": 8809,
      "ITION": 8810,
      "pytest": 8811,
      "Boscom": 8812,
      "monogram": 8813,
      "Log": 8814,
      "summary": 8815,
      "hunter": 8816,
      "Headed": 8817,
      "centred": 8818,
      "pretext": 8819,
      "successive": 8820,
      "DES": 8821,
      "merged": 8822,
      "shoe": 8823,
      "balanced": 8824,
      "plays": 8825,
      "filters": 8826,
      "template": 8827,
      "observation": 8828,
      "society": 8829,
      "Act": 8830,
      "Active": 8831,
      "Carls": 8832,
      "Carbun": 8833,
      "flood": 8834,
      "malignant": 8835,
      "Modern": 8836,
      "Grit": 8837,
      "Groups": 8838,
      "Speckled": 8839,
      "BOHEMI": 8840,
      "twist": 8841,
      "Expand": 8842,
      "Coronet": 8843,
      "hashing": 8844,
      "determination": 8845,
      "twentieth": 8846,
      "Symmetric": 8847,
      "Valley": 8848,
      "Beeches": 8849,
      "hundreds": 8850,
      "Order": 8851,
      "Orange": 8852,
      "daily": 8853,
      "risen": 8854,
      "payload": 8855,
      "simplicity": 8856,
      "separation": 8857,
      "limits": 8858,
      "planning": 8859,
      "contraction": 8860,
      "Filters": 8861,
      "motives": 8862,
      "brothers": 8863,
      "finely": 8864,
      "delicately": 8865,
      "Build": 8866,
      "Copper": 8867,
      "temperament": 8868,
      "flicker": 8869,
      "incorrigible": 8870,
      "invasion": 8871,
      "Engineer": 8872,
      "Foot": 8873,
      "Obviously": 8874,
      "dimen": 8875,
      "intrusions": 8876,
      "Continental": 8877,
      "Company": 8878,
      "Compliance": 8879,
      "DUN": 8880,
      "credential": 8881,
      "divided": 8882,
      "uffle": 8883,
      "schemes": 8884,
      "official": 8885,
      "Twisted": 8886,
      "principle": 8887,
      "SMTP": 8888,
      "rubbed": 8889,
      "theorise": 8890,
      "familiarity": 8891,
      "targeted": 8892,
      "Holland": 8893,
      "hierarchical": 8894,
      "accomplished": 8895,
      "parallel": 8896,
      "MITRE": 8897,
      "alternating": 8898,
      "loathed": 8899,
      "Virtual": 8900,
      "bulge": 8901,
      "civil": 8902,
      "drowsiness": 8903,
      "scored": 8904,
      "sneer": 8905,
      "imitate": 8906,
      "introduce": 8907,
      "effusive": 8908,
      "substance": 8909,
      "configuration": 8910,
      "ridiculously": 8911,
      "SCANDAL": 8912,
      "etteer": 8913,
      "Statement": 8914,
      "secreted": 8915,
      "Study": 8916,
      "Noble": 8917,
      "Wallenstein": 8918,
      "optical": 8919,
      "lodgings": 8920,
      "tradeoff": 8921,
      "sparkled": 8922,
      "destruct": 8923,
      "pronounce": 8924,
      "disturbing": 8925,
      "capacity": 8926,
      "hypothesis": 8927,
      "summons": 8928,
      "triumphant": 8929,
      "universal": 8930,
      "slavey": 8931,
      "hidden": 8932,
      "assertion": 8933,
      "scraped": 8934,
      "Beryl": 8935,
      "Eglonitz": 8936,
      "Egria": 8937,
      "Fetch": 8938,
      "Features": 8939,
      "Gazetteer": 8940,
      "Gesellsc": 8941,
      "League": 8942,
      "Odessa": 8943,
      "Peculiar": 8944,
      "Papier": 8945,
      "Remarkable": 8946,
      "Robustness": 8947,
      "Scarlet": 8948,
      "Trepoff": 8949,
      "Voice": 8950,
      "Vulnerability": 8951,
      "Wedlock": 8952,
      "climate": 8953,
      "dignity": 8954,
      "dubious": 8955,
      "gibe": 8956,
      "gasogene": 8957,
      "iodoform": 8958,
      "nitrate": 8959,
      "smelling": 8960,
      "slitting": 8961,
      "instrument": 8962,
      "escalation": 8963,
      "cocaine": 8964,
      "eclipses": 8965,
      "abhorrent": 8966,
      "absorb": 8967,
      "concili": 8968,
      "notepaper": 8969,
      "explanation": 8970,
      "exaggerated": 8971,
      "tragedy": 8972,
      "Insensibly": 8973,
      "introspective": 8974,
      "Trincomalee": 8975,
      "disclosure": 8976,
      "presumably": 8977,
      "predominates": 8978,
      "stethoscope": 8979,
      "Thursday": 8980,
      "perspective": 8981,
      "silhouette": 8982,
      "Atkinson": 8983,
      "Boscombe": 8984,
      "Carlsbad": 8985,
      "Carbuncle": 8986,
      "BOHEMIA": 8987,
      "Gesellschaft": 8988,
      "')": 8989,
      "('": 8990,
      "(),": 8991,
      "++": 8992,
      "+,": 8993,
      ",—": 8994,
      "=>": 8995,
      "?’": 8996,
      "Away": 8997,
      "ANet": 8998,
      "ADED": 8999,
      "BI": 9000,
      "Ben": 9001,
      "Big": 9002,
      "Bought": 9003,
      "Bio": 9004,
      "BAT": 9005,
      "BRI": 9006,
      "BRIS": 9007,
      "C2": 9008,
      "CF": 9009,
      "CM": 9010,
      "CN": 9011,
      "Cob": 9012,
      "Cial": 9013,
      "Clot": 9014,
      "CERT": 9015,
      "Counter": 9016,
      "D2": 9017,
      "DA": 9018,
      "DD": 9019,
      "DL": 9020,
      "DM": 9021,
      "DX": 9022,
      "Du": 9023,
      "Dar": 9024,
      "Dil": 9025,
      "DET": 9026,
      "Dense": 9027,
      "DAST": 9028,
      "Drive": 9029,
      "DBT": 9030,
      "DCT": 9031,
      "EF": 9032,
      "Ek": 9033,
      "Emotion": 9034,
      "FG": 9035,
      "Fed": 9036,
      "Four": 9037,
      "Fel": 9038,
      "FAST": 9039,
      "Fisher": 9040,
      "FCN": 9041,
      "GG": 9042,
      "Git": 9043,
      "Got": 9044,
      "Han": 9045,
      "Hal": 9046,
      "Hare": 9047,
      "Hum": 9048,
      "Harr": 9049,
      "HSM": 9050,
      "IR": 9051,
      "Imit": 9052,
      "IAST": 9053,
      "I3D": 9054,
      "IBP": 9055,
      "Jer": 9056,
      "JWT": 9057,
      "Ks": 9058,
      "Ker": 9059,
      "Kal": 9060,
      "Kind": 9061,
      "KMS": 9062,
      "LR": 9063,
      "La": 9064,
      "Lap": 9065,
      "Lang": 9066,
      "LER": 9067,
      "LIC": 9068,
      "Living": 9069,
      "LEA": 9070,
      "Libr": 9071,
      "LBP": 9072,
      "Men": 9073,
      "Mal": 9074,
      "Met": 9075,
      "Mob": 9076,
      "Mask": 9077,
      "Made": 9078,
      "Micro": 9079,
      "Male": 9080,
      "Mister": 9081,
      "Ness": 9082,
      "Nuc": 9083,
      "NORT": 9084,
      "PT": 9085,
      "Pin": 9086,
      "Put": 9087,
      "Phis": 9088,
      "Psha": 9089,
      "PAT": 9090,
      "PAST": 9091,
      "Pipe": 9092,
      "PANet": 9093,
      "QL": 9094,
      "RS": 9095,
      "Ris": 9096,
      "Rather": 9097,
      "RTO": 9098,
      "RPC": 9099,
      "Sem": 9100,
      "Sol": 9101,
      "Spl": 9102,
      "Sel": 9103,
      "Seld": 9104,
      "Svel": 9105,
      "Sny": 9106,
      "SVM": 9107,
      "SLA": 9108,
      "SGD": 9109,
      "SVC": 9110,
      "SLIC": 9111,
      "Tri": 9112,
      "Try": 9113,
      "Top": 9114,
      "Turn": 9115,
      "TVM": 9116,
      "Unt": 9117,
      "Vit": 9118,
      "Vite": 9119,
      "Vue": 9120,
      "VAE": 9121,
      "Vault": 9122,
      "Women": 9123,
      "XSS": 9124,
      "Zero": 9125,
      "_n": 9126,
      "_in": 9127,
      "_car": 9128,
      "_password": 9129,
      "_bi": 9130,
      "aze": 9131,
      "averse": 9132,
      "bon": 9133,
      "biz": 9134,
      "bily": 9135,
      "brew": 9136,
      "breas": 9137,
      "bands": 9138,
      "batching": 9139,
      "cs": 9140,
      "cules": 9141,
      "cinct": 9142,
      "cFace": 9143,
      "dus": 9144,
      "dain": 9145,
      "e_": 9146,
      "fli": 9147,
      "fers": 9148,
      "faction": 9149,
      "fath": 9150,
      "faster": 9151,
      "fMR": 9152,
      "fists": 9153,
      "gan": 9154,
      "gang": 9155,
      "gait": 9156,
      "gender": 9157,
      "gRPC": 9158,
      "hift": 9159,
      "iT": 9160,
      "ium": 9161,
      "ipt": 9162,
      "js": 9163,
      "jw": 9164,
      "jou": 9165,
      "kered": 9166,
      "kings": 9167,
      "lent": 9168,
      "lac": 9169,
      "lass": 9170,
      "link": 9171,
      "lens": 9172,
      "marm": 9173,
      "male": 9174,
      "mpted": 9175,
[...]
